node {
  name: "x"
  op: "Placeholder"
  attr {
    key: "dtype"
    value {
      type: DT_FLOAT
    }
  }
  attr {
    key: "shape"
    value {
      shape {
        dim {
          size: -1
        }
        dim {
          size: 10
        }
      }
    }
  }
}
node {
  name: "sequential/dense/MatMul/ReadVariableOp/resource"
  op: "Const"
  attr {
    key: "dtype"
    value {
      type: DT_FLOAT
    }
  }
  attr {
    key: "value"
    value {
      tensor {
        dtype: DT_FLOAT
        tensor_shape {
          dim {
            size: 10
          }
          dim {
            size: 64
          }
        }
        tensor_content: "h\361U=\362\017`\275#\277\240=\316\213\031=\207a\355;\355\010\236\275q\216I>D2\030>\221U\021\272\312\241\244\275~\177\332\275\357\017\236=<\331T>\376\351\032=\211\212\325=\326=w;(\341\214>t\024/\275\343\371\267\275\007X\222<\253Kh>gG\014\276\262\310\374=\3707\235\274\256\365\312\275Z\246\263>\3474E\276<\351J\275\025\226\007=]SK\275\307F_\276\250A\001=\016\251O\275\203\203\341=\n\216\n\276q\270\255\275\336\362E\274m\227\371\275G{r:\273\374\037>*\310\210\275nR\253=\316\275f\272\3244\226\274={\277\274-~\001\276N\027->K\037\235\276\310\352\r>|i\207=W8\003\275\264\300o\274\274\037p\276\r\253(\276\230\233\"=O:\200\274\240\332G>\315i\247\275\t\316\355=\377\212@=u\301)\275\273\021\'\276\006\177\252<.\312L>#\372\251<\251\3023>gl0\276\261s\033=\263R\336=M\207\202\275\3738A>FH\024=\311\030\003\276<\rF=\177\344\'\276XH\235\274+\0144\276\214Z\221\273\216z!>\022\200\215<)\345\017>\317\261\340\274A-\305\275\362\317*\275\270!S<l\300Y>\2265\024>\256\377\376\275\352k\201\274.\334\315=l\273T=j\330\'\276A\273\270<\000\351\270\275>sD\276\271\"8<M4\212\274S*\350=\343\305\206\275\347\202\265\274\246\314}=bQ\366=\tbG=\306M\024\2752\2667\276\342z\246\275<\377\200\274\214\372I<f/\235=vY\376\275ni0\276j\203k>\3320d\275V\223\026\276\006\nX\274\267\037\375;5\225\252\275\223_\326\274\202:\205\276\304\337\261<\255\264|\274|m\242\274\264\030Y\272<\212\265<\351\207\005\275\014\237\344\274\347z\275\274\332\'V>\234\241s\273\203\271\224\276\027\022M\276\235\337\023>lsG>qC\231<\237\036\020\276\220\304\252=Q:*>\376\256\356\274\257\306&>\361\264\021\276d\321\261=\332\264\027>\372\353\357=\234\226\025=4\323d\276\030\330\336\273\000\033*>\333\251\306=^\237\000=\2773\202\276\0013\020\276\351\352\036>\261.\330;.E\204=\270\004\203=k\013\233=\"\311\247<\270\225->\357\302\376\274\205\020{<\372\357\032\275\347W =+\343\376\275\002\350\002=!\360\266\276\013\267\366=\365\232V<`\225\266\275\232\212\201\276\207\254|\276^_\202\276#\3412>?\026\370=K}<>\355\356\013\276\207\366\305= \007K\275\366\342\033>\362\241.=\216\230\247\276\332\210{\276\014\367.>\235d\305\274B\034V=\231t\260\276\226\357\266=\345\237X=g\211==D$\242=\016e\221>\333?\3039r0\370\274\300\366\311>\256c\367<\251\305A\276\324\373\376>\333\234\304\276\375O\037>t\332E>4T3>\251G\235\276-\350\271>\362\331\007\276 \203\273;\017\240\232<-\266D>\20230\276l\326^\276\326Y\334=\362Y\313\276^\327\304>\013\363\036<B3\312\275\342%\250\275~\264\207\274C\301\217\276p^\275\276\020j\227=\341=3\276\372Wz=\256Q\365\276\352\002\230>\313\232?\276\302\234\374>_\323\274\276k\030\261>\271\030?>\204\210x\276 \240\306= \033\337=\226e\266\276eJ\213=\276g\206\274n\003\262\275%\020j\273\372\320\004\273\315\346\364=\277$7>\\S?>\362\221\036>}*?\276\026\315L>%`\022\277\320c\241\275\374#\032\275\033W\271>S\264J=S\316\374>\322\205K>\354\000\371>\227\341\253\276\373\037\303\276\332\367\307>\355\225&>_!9>o\347\310\275\354\214\241=\277G`>\177+ >\245\311\267=\354\t@>\265\271\201\275\230}\014=~\340\361\275\347[\231=X\346\302=\332\255\310\276\236\310\276\274\264\2603\275\237\227\311=|u\216\275\307d\225\273\274\366\221=\203\177\005<\014>5\276JB\245\275>\374\r>f\3108>\357CE>y\335\227\275rl\347\274<xr\273\002\303\203\276^\020!=T%\031\275\312\242\"\276cl\006>m\244a<]\215\257<\304\363\271=K\303&\276w\222\245\275\"\ts<uV\272\275\031\036N;\335\214\201\276\r.:\275\234\031N>\035\207k<\002\262\324=\033,\304\275\204\177\010>D\264\364<\240\241I>s\367\020<a\344$>L!M=\2152\215\275\005\203\240=\363|/\276\366\023\372=\230G\330\274\"\363_>?\341\225\275\236\002\206=\200\014\206=\220\315\212\274\236\001\236\276/m\302<\352_\340=\250\000\376\274>%*\275\311-\226\276\307v\260=\376!N<sR\000=\367K\272\275\305]\201\276t\267\007\276\360\361A=C\222\214\275\330\3340<\231\254\333\275\007i)>\337\177u>@\250b\275\220,*\276\025\276\"\276+\203\315\274\037\321\250\274A\tl\2761\005\202\275k\036\323=ar\001\276[d;\276\022X\217\275\037\321\210\275c\266\016>\035\324\343\275\247\205/>\347\215\273=\237\303\224=\014<2\2760\026\027=%\026j\274\270&\014\276P\275\r\276\254\336\235\275&\360\210\275\245\t\350\275\234\200\227\272\031\002\300=\241\227N\273M\371S=\357\006\305=\253\013v=\226\262]\276\330\255E\276\337;9>\220\234\274=j\317\323\275\347\0057<\022\014\220=\377\330&=*\313\177\275r\207&=9\025\332<\352\213\033>\370\363\212=\373\201e\275\242\377\357=w_\223>\t\234Y=\000\233\201=\231\250\036>\306\210G<\016\266a\276\347P\243\275GF\014>\023]\223\276\320\017F>B\326\361=\323+\225>\317\271\371\275_\001Q\276\305)\216\274\027+\230>\222\025\356\275\305\037!<nnT\276o\354d>\347Hc=Qc\005=\240\020\273\276V\332\016\276\302~#>!\311\245>\365\303L\274\343z\021>\231Et>0\026\035>;\310b>\236\240\256\275\243\375\234\275]\017R>\242,\266\275;d\n>\342\037i\276\023n\304\275\234\271\250=5/\031>\375\255\025>\003\004\273=\003^r>q&\033\2754<\016=\330\217\304\275\325\307\247>\225\272 >Q\300v=\202\037\240=\234\031*>\330\264\364\275pq\010\276M\037*=h>\352<\201\375\247>\016\245\234\276\030\232\356\275\325A\030>\322\266\037>l\030\035=l\351\250\275U\374\302\275\265\231~=`\324\376\275\353N\024\276X1z>\277U\025\276\336\247\205>\241~N=\305\0200\276q\001\237\276qMX=\277\351\235=\207h\325=\010Qu\276\330/\211\276\003\024H=\351\307H>\037\354\227=U\315\243\276H\010M>\354#Z\276Lg$>\245\213\250\274sXx\276\366)\273\276H\212\307>&\223\364=\366\231\001>\257\270~\276+\263\215\276\236e\212>\220\250\010=\371\025\037>.\232T=p\214\235\276\027yc>\200j\263\275\317\005b\276\263@#\276W~\243\276l\214\n\276\340C{>{U\301<\205\013\206\276\032\027x;\246\023\234>\374P\032>\017\273\213>\320\t\277\275\365\006w>)\367o>\225qu>\256\277l>\025m\207>\343\337\310\276\210@\006\276b}\247>\001^\247\275J\302\335=\257\353\220>Wo\'\274\347v\321\275hX\303<\301\335\331\275C\023\207\276\3237#=br\306\274\241\361\220\276\177\352\336\275/\310\220<\374Z\032\276\231\nO\276\356\037P=\326\306\203<.\020\203\276\300\013\205\274D\r@>\030\341\330\276P\307Q>\033\213\\\276\010\352\334\275b\371\220=\371\365W\276\247\000\377<\217kE\275\004v\224\275\220\027\270<aD1\276\352\206\233=fl\210>\ri\200>\237\001+>\005\236\255=\204k\262\275\260\3315\276\265\337\356<\r\320U>)\3013=\020/*\275`\305\030>g\3423\274\372\254\014\276\324\312\207>\023\212^>$\013\356\275`\216\000;\344n\351<\264\365\315<}\352\204\275\033I\200>\r\306\021\274\220\201\014>\231 \214\275\235\207K>\241ZM\273Rx\210\2766X9>\350\240+>\tBt\275\\\022\342\274\013$-=\217xO>\"^\326\276\224B\025>\341[\372=}\006\010\276\177\001G\276\265\001\200\274_\346G=\022K\217\275\321\3524>\020\024_\273\\+\232\274s\202\031\274\223\330C<\327a\343=f\225\273=\030\037\001=\321\304\276=\036\343;\275\324\240\264\275\324^\n\276\240Vf>\353\313[\276h\316\027\276\211Q\'\273\335a^=L\214\027\276\343\322*>\341=\274<\376\344\017\275]\227\226;N|\205=)\004\222>\203,\342\274~\271\375<\002\227\214;cGP=|\246\213\274k\354`>\303UZ\276l\021\211\273\270jB>\357\356\214>5J\013>C\337\350=\354\264\031>*\277\210>;\374\017\275\225\025\233=\312~\023>1\360\003=y\r2>\222}\225\276\233\340\241=/\233\033\276N\367\207=\r\215\326;\343+X>\305!+>\353 \037\276\352\177+\276\215v\010>uM\224=\200\\\275\275\372)Y>{`\337=\034\243\177>Kt9\276\355\254P>\234H\214=\327\300\032>*pi>\032w!\274e\257r;\200\247\000>a\177\005\276"
      }
    }
  }
}
node {
  name: "sequential/dense/MatMul/ReadVariableOp"
  op: "Identity"
  input: "sequential/dense/MatMul/ReadVariableOp/resource"
  attr {
    key: "T"
    value {
      type: DT_FLOAT
    }
  }
}
node {
  name: "sequential/dense/MatMul"
  op: "MatMul"
  input: "x"
  input: "sequential/dense/MatMul/ReadVariableOp"
  attr {
    key: "T"
    value {
      type: DT_FLOAT
    }
  }
  attr {
    key: "transpose_a"
    value {
      b: false
    }
  }
  attr {
    key: "transpose_b"
    value {
      b: false
    }
  }
}
node {
  name: "sequential/dense/BiasAdd/ReadVariableOp/resource"
  op: "Const"
  attr {
    key: "dtype"
    value {
      type: DT_FLOAT
    }
  }
  attr {
    key: "value"
    value {
      tensor {
        dtype: DT_FLOAT
        tensor_shape {
          dim {
            size: 64
          }
        }
        tensor_content: "E\216|\276\207:z=\226\362\203;\ne\025\276W\351%\276]@z\276|\227w=\312D\247\2756\356+\276\242\371>\276\006\312*\276\001\273$<\374\337-\276\300\255\205\276\302\254\004\276\234]\232\276I\026\363\274\270\007\233\276\030\376\027\276\247\331{\276Q\002\006\275n/\033\276\t\353e=? \220;\221\376\203\276\370\\\341=\343\317\316\275m\233\327<\316\223\257\2767\240B\276\'\264\022=\177\033\225\276\343g\242\275\314\303\262\275\365\340\307\274\304I\304\276J\337\250\274\236\006J\276x\022g\276\302Wi\276\264\027i=)\225B=\326(~;\342\363\221\276\306\354\222\275\341pA<H~\376<b\330\031\276H\234\216<\'\327\035\276s\"L\276\317\335x=0\250-\276\236\222Y\276\235y\336=\360\223;\276\257<\253=Ec\235\276{\275{\276\353\356!\276\363\204\234\276#\273\261\275Q\223\255\276<\225s\275"
      }
    }
  }
}
node {
  name: "sequential/dense/BiasAdd/ReadVariableOp"
  op: "Identity"
  input: "sequential/dense/BiasAdd/ReadVariableOp/resource"
  attr {
    key: "T"
    value {
      type: DT_FLOAT
    }
  }
}
node {
  name: "sequential/dense/BiasAdd"
  op: "BiasAdd"
  input: "sequential/dense/MatMul"
  input: "sequential/dense/BiasAdd/ReadVariableOp"
  attr {
    key: "T"
    value {
      type: DT_FLOAT
    }
  }
  attr {
    key: "data_format"
    value {
      s: "NHWC"
    }
  }
}
node {
  name: "sequential/dense/Relu"
  op: "Relu"
  input: "sequential/dense/BiasAdd"
  attr {
    key: "T"
    value {
      type: DT_FLOAT
    }
  }
}
node {
  name: "sequential/dropout/Identity"
  op: "Identity"
  input: "sequential/dense/Relu"
  attr {
    key: "T"
    value {
      type: DT_FLOAT
    }
  }
}
node {
  name: "sequential/batch_normalization/batchnorm/ReadVariableOp/resource"
  op: "Const"
  attr {
    key: "dtype"
    value {
      type: DT_FLOAT
    }
  }
  attr {
    key: "value"
    value {
      tensor {
        dtype: DT_FLOAT
        tensor_shape {
          dim {
            size: 64
          }
        }
        tensor_content: "(\000\323<_\026h>V\022I>q\343\021>\005\242\232=}J\217<iU\340=n\227\177=\017\342\006>\233\226\363=^\314\340=\340\032.=k\223\t>\315\032\240=iV\006=[\016\232<\006_+>\240GT=\003\026\354=J\025Z=]`\322>\244]S>Bs\255>/K\023>;8\247=w\033k>%\375C>\245\311\030>|\001[=G$\004>\266\271\026?\021\316\217=\336\237\375=l3\375=X\250[>\005\225\210<\200\213\\>^\330\234=R\266G=D\302\346=\241\222\030>\222\027\027>\367g\252=g\340\032=\332\342E>\033)[>s\201(>\275\320\\>\032,\202=\272c\266=D\361\022>\177\207\033>WT\336>\212\003\343=\376\201\244>6i\322=\271\267E>\370(\334=\375\226\235<\203:\267=\236\004A=\223\275J>I\'6<Z\241\335<"
      }
    }
  }
}
node {
  name: "sequential/batch_normalization/batchnorm/ReadVariableOp"
  op: "Identity"
  input: "sequential/batch_normalization/batchnorm/ReadVariableOp/resource"
  attr {
    key: "T"
    value {
      type: DT_FLOAT
    }
  }
}
node {
  name: "sequential/batch_normalization/batchnorm/add/y"
  op: "Const"
  attr {
    key: "dtype"
    value {
      type: DT_FLOAT
    }
  }
  attr {
    key: "value"
    value {
      tensor {
        dtype: DT_FLOAT
        tensor_shape {
        }
        float_val: 0.0010000000474974513
      }
    }
  }
}
node {
  name: "sequential/batch_normalization/batchnorm/add"
  op: "Add"
  input: "sequential/batch_normalization/batchnorm/ReadVariableOp"
  input: "sequential/batch_normalization/batchnorm/add/y"
  attr {
    key: "T"
    value {
      type: DT_FLOAT
    }
  }
}
node {
  name: "sequential/batch_normalization/batchnorm/Rsqrt"
  op: "Rsqrt"
  input: "sequential/batch_normalization/batchnorm/add"
  attr {
    key: "T"
    value {
      type: DT_FLOAT
    }
  }
}
node {
  name: "sequential/batch_normalization/batchnorm/mul/ReadVariableOp/resource"
  op: "Const"
  attr {
    key: "dtype"
    value {
      type: DT_FLOAT
    }
  }
  attr {
    key: "value"
    value {
      tensor {
        dtype: DT_FLOAT
        tensor_shape {
          dim {
            size: 64
          }
        }
        tensor_content: "\221\245\212?\362\241_?\256B[?\234\261\201?.\254{?\300\256b?\201[y?\027#s?QX\202?\216\270q?\312\nx?\271EY?\225\252\200?\360\340p?\005\321v?R\312\216?\307\240q?\'\303\206?da{?\277\032z?3\026\201?\333\034i?\331\376u?\260\320u?\266\201\214?w\035u?QE\204?\336.x?M\003\230?O~\177?\335\270s?\256 \221?\302\313i?LSa?p\361d?RC\211?\262\337w?o\266o?\237/\211?\230\234\212?\\0T?\007\017R?\244\373c?\321\257\234?3\366\200?\275^W?Q\215q?##r?\320\346X?\200\256i?\255\316\213?\014\207r?\343_r?\014X\210?\353\302]?\366\030\204?\323ET?\337j\225?\r%\206?\276\324\201?\301\034\213?\200\267i?m\005\225?\014\323i?"
      }
    }
  }
}
node {
  name: "sequential/batch_normalization/batchnorm/mul/ReadVariableOp"
  op: "Identity"
  input: "sequential/batch_normalization/batchnorm/mul/ReadVariableOp/resource"
  attr {
    key: "T"
    value {
      type: DT_FLOAT
    }
  }
}
node {
  name: "sequential/batch_normalization/batchnorm/mul"
  op: "Mul"
  input: "sequential/batch_normalization/batchnorm/Rsqrt"
  input: "sequential/batch_normalization/batchnorm/mul/ReadVariableOp"
  attr {
    key: "T"
    value {
      type: DT_FLOAT
    }
  }
}
node {
  name: "sequential/batch_normalization/batchnorm/mul_1"
  op: "Mul"
  input: "sequential/dropout/Identity"
  input: "sequential/batch_normalization/batchnorm/mul"
  attr {
    key: "T"
    value {
      type: DT_FLOAT
    }
  }
}
node {
  name: "sequential/batch_normalization/batchnorm/ReadVariableOp_2/resource"
  op: "Const"
  attr {
    key: "dtype"
    value {
      type: DT_FLOAT
    }
  }
  attr {
    key: "value"
    value {
      tensor {
        dtype: DT_FLOAT
        tensor_shape {
          dim {
            size: 64
          }
        }
        tensor_content: "}C\363=D\345\341=\213\277\321\273:J+>\004D{>\240(\341\267\257;b=\341\001v\275\305\376\213>\344E\264<\371e=\272\277\033\327<\373~\217\275S)\267;3o\244\275\346~\334=\0372\200\274\246\177>>\351x\246=\246\247\034<\361\3555>\\d\302\2745\243\017\276\236\341\267=\366\277\013>n\305-=/\237\364;\342\022\000\276\350\376\024>\317\347[=\204vR<\315\352m>V\344\034\274/\005\365=D\372&<\013\333\244\275\264\210\013>\307uU\275\004\273\255=ls\021;\244\227\203=\216~\315=\034i\223\275\t\345Y\276\221;\366\2755\201)>u\220\203=t\200\202>\032.\243=Y\3226>\217\255J>\344_X=k2\234\275%\341\221=\305\312\324=\331x*>N_\366<\313F\340;[\nI>\3505^=\244\275U>\370\205>;\332\226\317=\202\360\226="
      }
    }
  }
}
node {
  name: "sequential/batch_normalization/batchnorm/ReadVariableOp_2"
  op: "Identity"
  input: "sequential/batch_normalization/batchnorm/ReadVariableOp_2/resource"
  attr {
    key: "T"
    value {
      type: DT_FLOAT
    }
  }
}
node {
  name: "sequential/batch_normalization/batchnorm/ReadVariableOp_1/resource"
  op: "Const"
  attr {
    key: "dtype"
    value {
      type: DT_FLOAT
    }
  }
  attr {
    key: "value"
    value {
      tensor {
        dtype: DT_FLOAT
        tensor_shape {
          dim {
            size: 64
          }
        }
        tensor_content: "Lgy=H@r>-\253~>@.A>\023V\371=a[Z=;2H>\270g\307=\'\2476>\257\233\027>\321\316->!\020\320=W\362\002>^\351\000>\375H\231=\247\357K=\261\225H>\230\002\322=\2757(>x\017\370={\204\211>D\362.>\340y\203>\224iY>FO\006>`L\210>\372.*>a\026:>%\010\315=\270\326/>I\021\235>[=\360=XQB>\373\210->\272\363_>\002\243,=\357.^>\313\223\236=\346\245\310=\307\024\321=\365\303O>\003\374K>\347[\021>\207\225+=[L\'>\215j^>\345\277N>\342\2501>\210\250\374=\353\375\023>\374]F>>\257U>\272\271K>\307Z\035>`\324\205>\264: >\307\346\203>\262k\032>K\231S=^\251\023>\256=\274=\216Bd>\006\335\016=\003\261\267="
      }
    }
  }
}
node {
  name: "sequential/batch_normalization/batchnorm/ReadVariableOp_1"
  op: "Identity"
  input: "sequential/batch_normalization/batchnorm/ReadVariableOp_1/resource"
  attr {
    key: "T"
    value {
      type: DT_FLOAT
    }
  }
}
node {
  name: "sequential/batch_normalization/batchnorm/mul_2"
  op: "Mul"
  input: "sequential/batch_normalization/batchnorm/ReadVariableOp_1"
  input: "sequential/batch_normalization/batchnorm/mul"
  attr {
    key: "T"
    value {
      type: DT_FLOAT
    }
  }
}
node {
  name: "sequential/batch_normalization/batchnorm/sub"
  op: "Sub"
  input: "sequential/batch_normalization/batchnorm/ReadVariableOp_2"
  input: "sequential/batch_normalization/batchnorm/mul_2"
  attr {
    key: "T"
    value {
      type: DT_FLOAT
    }
  }
}
node {
  name: "sequential/batch_normalization/batchnorm/add_1"
  op: "Add"
  input: "sequential/batch_normalization/batchnorm/mul_1"
  input: "sequential/batch_normalization/batchnorm/sub"
  attr {
    key: "T"
    value {
      type: DT_FLOAT
    }
  }
}
node {
  name: "sequential/dense_1/MatMul/ReadVariableOp/resource"
  op: "Const"
  attr {
    key: "dtype"
    value {
      type: DT_FLOAT
    }
  }
  attr {
    key: "value"
    value {
      tensor {
        dtype: DT_FLOAT
        tensor_shape {
          dim {
            size: 64
          }
          dim {
            size: 64
          }
        }
        tensor_content: "kU\020\276\306\213\317;\330\017\300\275\023\270\203\276oS\361\275\330fc\276t`\303=\341G\314=\332\021\210<\276\322\217\273n\376\321\275|\034B>:\370\026\2768\231k\2763g\326<.\013\354\2747\264\355=\350\330^>\307\010v>\357L{=1\222K=\352\034I\276\016\rK\276h\365L>!\342\273\275\325\365\"\276\3247\333\275\230\260[>Q\370\006>\256fB\276\361\nZ>W_\225\275B\025\037\274)\263\202=0\'\236\275\374]\001\275\266N\241=\263`\307=\224Af\276\367\354j\276B\263?\275g\306{\275M\020\025\276v\030v\276]\034\016>w\006\023=\246Qb>\\\3408\276\352\351->g\356\311\275\324\003\303\274]2j>\231d\271\275/`\014\276\311\222\321=\242\306\217=\352\336\006\275F\273.>\023b}>\256\350\035\276 \276\303=\024U\200>\242\n\354\274\3604J=S\371<\275n\315$>kQ\315=$\210M=\217o\030\276Y\314\364=\252\000\361=\236MZ\275\246\232\031\276\010\225\267\275\377\354\010<\212~?\2757\240\326\275e_P=\033\356 >\271\245\007\275\361WL\275\336\343\036\276@\001\215=\200\326x=>-\364=\256\241\340=4F\325\275\334K\364\275\2420\254=\207}\337\275x\346A\275H\250C\276\317\027\315\273\277/G<J(9\276F\332k\275\263\007\315\275\335\337\024>\213\262\231<rW\003\276\020\336J=\347\242e<c\211\215=\264Al<\202`\324=\332,1\276\335JT\276\017q\024=\303[\332\275\371\364\"\276\024@\364=\022N\220<t\373\340\275w\344p=|\372\360\273\362\013\006=O\322\357=1\020\351=\307w==\340\207L\275\233\344,\276\253\273\316\275\315\354\317=\236\362b\276\233\345\306\275\340Q!=\346\256a\276\362}0>\213Uy\274Ji\204;f@\034\276$\014\237=\365\353\022=\361\272\376=\205_\350\272\243\034\252\275Q\003\036>:.\311=\351\025\224<\323\005N\276J\324\007\276\207\325\233=\007\334W\274\233\\w\274%>\207\275\224e9\276Q\340{\276\344R\021>x|.>\341,\016\276\260\313m>\034z\036<\022\345\270;(\271\n<#\212\t\276T,\005\274q\311\347\275\200\234\r\276Q\nq=Ue\256\275E\303\345\275o\310\250=\356p\310=\210\273\266\275\365zw=\233\024y=d\347N>\036\300\031>\352l\n\276N\305!>\363\221%\276\357\331S<s\014;\276}\000\'\276\225O\237;\264^\014\276/^\r>@T\345\275\325\207\252\274\275\005g=8\314)\276\262\205\255=\376E\321<\032\2349>\257:\375=\342\305\025=O\222\347<`\330R\275\026\241\033>\372\346\236=\253v\352=\321o\312\275\303Nx=!\375\214<\021\237\t=~\267\014\276|\335w\274j\2343\276\262n\201\275\035\361\254\273\200<\016=\260\224\027>\345\310\352\275\234+\021\275\235\\6\276\245z\266\275\262\253\255=\024\202\003=\007\005\270<\\e@=\\\254 \276pGy\276\234\220\216\275\343\223Z\276\306\312*\275\224\276\032=\362\254o\276yG#\276\363\364y\275c!\236\275WnX\275\202\272\n\276l\3506\276\240~->\376\034\373\275\211\337\017\274\373\014}\276<nF\276TI!>\207.`=\367\001\036\2765\254\t=\256\331\200\275\215\240\025\276\252\n\207\275\266tz\276\350\3072>cI\265>d\347\035>Q\343\320=\000>\023\276\\\336\037\276\204\345\013=b\211\\>\300S\214\275\2733<\275\276w\003\276\327\215L\276DtK\276\344\300@=\352H\022>\241\346\r=\250\325e\276q.>>\330NI>W\0206=#?`\276qz\260\275\355v\236=\030\304\216;\001\014U\276\014\337\331\274\237\016\006;\266\361\021>\256\247\364<^\372\037\276-M,>\261\227\364<z\273V\276\202\352\273\276Q\353\214\274n\204\300\275\243?*\276_\014\265\275s\303\351=\021\224\216\276Q\253\377\274>-\024\274 K\336\275Z7\003>\027\252\237\276\022\316O>\024\224U\276\035T\362\275\353C\265\275\324\014\237=\215=\250\274}\265r>\017\213\353\274,\343\024\275\223\253\345\275\357\224\n\275\366\032\202=\016\374.\275\211=]\276a\263\030=b3\252\274\007\t\251\275\241\233\367=w\261\273\273_l\032\276\033@c>\317;\272=6\371\260;\205\223{\276\020\333-\276b\271\310\275\374=\264=\350\200\320\275\247_d\276+\354l\276\177\322\375=g\303\263=\253\336V>\002\2401\276\005\203\024>@Z6>Co\344\275\225\243\247=\330-V\276N]\274<\r<\266\275\027\217c\275\270\261\t\276\265\317\214\275\r\247\235\274\3778\r<v\275\354\274\244\331\331;[\301\270=\022\327\347=\031\203C>\275F\014\276D\n\206=\262\277y;\025\326b>G\306\300=Y9\226=\371\221\003\275.z\273=H\304z<\025C4\276\276\272T\276o\226\340\275\261\3504\275D\025\356\274\n\3030\276\224\322\277\275L\354\267<\"\337\'=\217\340\221\275\252\001\227<\363A\001\276\037\276\243\275\241%\'>/\241\232=\242io9\r\364\003>\344\ny\275\361\365\301=\017\177\222\275\375O\206\275\373\252\342\273\177z\003\276\331D\356<A\326e\276@\337\202=\344$\304\275\246\240L>\315\234%>C\"\016\275\340\263`>\326b<\276\347k\235\2755H.>^\244\274=\203\235\360\275\273 !;3\341\250\275v\331\215=\371\274\273<T\215\343\275<\314\210\274{\216\325\274pp\010\276U\257\002\276\024F\002\275\334\234\033\275\200=\365<\205d\300<D\243\"=fx\250=\353{\333\275\330=S=w\206.=\023\312\300=\312\203\276=\203\237\243=AV\326\275\273\017e=\024\231\342\2757F5>\344\335\255=\'4`=+H\035\276\3206A\276\314\371\374\275\305\0339\275\214u\207=\334\342\305\275\273\360\275\274\370\244\241\275\342f\212=p\240\016>\265\302=\276\304\375m>\204\221\002>\263\027\331\273\t\n\232<\225\312Y\276m\364\366\275\313\351C\276`\037\313=p\340\013\275\033\250i\275\304Z\271\275\277;T\276\324X\335\275AL\023>\237\016\030<\267\304)=F&\262=-\035T\275\361\025\235\275I\363\000>,}\001\276\260\261r\275\020\";>\t\206\361=\227\324t>X:\260\276\205T\247\275{i\256=\211Q~\274$i\031\276W\273V=D\346\013\276\312\204\272\275\261W\275\275q\305\207\274[S\027=a\245L>\236O\247<j\336F\276\274\303k=\211\215\014\276\315r\024<\332\371\377=Ox\332\275/\350\n\276\3449T\274Z\244\n\276\007\016&\276\353,\273=\204\255\006>Ly\336\274-\001-\275\365\377W=\321P\227=\333\345\313<&+\216\276\016\273\004\276\034`\260\275\211X\311=L\342-\276[M\r>+\375\377<\246r\">\340\310\022\276j\014\306=\261U\007>=m\031>\2137\215=\317\315`\276Z\303]\276K\345N=\244|\262=\340\321\226<+\232\'>\214\n\247\275\242\026\350\275ph\002\276\3574\360\273\353\t+<}\241\334<\305\001&>\231\270\022\276\227G\307\275! \247=\375U;\274_&n=\271\306\364=\336\007\225=s\345z>\300\333\224\275\233\203\002;\333\236\313\275\246\374=\275\214\343\307\274V`\356=\3378(\275\217\000K>ig\277\275>\212\023>dZ\305\275\016\272`\276\250\241\274\275\213{2\276.\367m<!(O\276\272\\\357\275yN\315\275\266\317\016>\000\007\232=\245;*\275\334\r\250=+Cr=[Y\255<\247y\375\275E\324\305=\021\255`=zo\027\276\020\374\003\276\206\253S\276\004\333\002>\275\353/\2761\301W\276\206/\000=h\334\005\276s\356\235\275\327\001\217\275\033pd\275[!\305\275\353h\003=\346+M\276\354P\005=\024\"\231\2750\210T>A\243?>4\232\007<\002%*\276\325e\215\272\211\370\">\300rf\275\032\250\216=\262\213\233=9\217\251=\263#\016\276S\310L=\355\201\220<\270\354z>m\r?\276\267W\241=\246u\270\275\\\221\355=\203\314\264=\014|y\276\323\306\240\275\253\016$=\356(\003=\2563T\274%\277\352<\023\261\322\274\310\253_\275\020\311\000\276\365\321\370\275_\016P\275\216\370X\275\274m\337=\\\243\025\274\267^_\276G\333\273\273>*\014>|\372c>f\213\372=U\005~\275\346\334\207\275\330\342\230=\200\266\017>\217\333\220=\262P\001\276\266\336\303\274n\237\332=*m\004=\352\367\216\272ZT\235=:9)>\232V\343=\325L\001\276\312\326\363=\354\272y\275pO\201=\213\017\261\274\357\335\017>\256=\000\274\207i6\276\026\000\343\273\3307\322\274b\001b\276\332\217\026>m\346a\275@O~\275%\334+\275\361\260b>O\372\003\276a\220Q\276L\311\345\275v\345\326=KA\206\273B\206\370\275\007\034\030<3\017\373\274\021\360\217=2y9>\223\346\t>\021R\276=(6$<\244\223\205<\340\262 >\034~\'\276\241\266\312=\206\317\234\275\303\337\005\274\323\350\000\274L\005\301=\310\370\270\271YM\324\275\027\227\t\276E\350\037=\275U\027>!\340u\274CT\260\274B\022\n\276u\304\330\275\016\356)\275*Z^\276](*>\360_\337\275\246\231#>\314k\260=t\352\017>\0000\030\276\307\004\025=\345@\306\273\376\305\217>\237/z\275*\311\342\274N@\301\274\275AP\276n\216x\276H\220\334<{\205.\276\211{\202<\002\377=>\020\3639\275.&\335\274fC\261=]n\361\274\255\\$\274\214\227\022>R\013\271\2755\276\337<\0235r\276\ty\233=J\275\n\275\244\347X>D\336i>\350\321\357=\021}\233\275\034y\201\275\2079\002>\016\0252>\321\037\365=\354p\007\2753n\013>\3626\002\276\360\0172>\r2\264\275\276\333\n\273\n\324\222=\346\2647>\022\234^\275\311\234f>\260B\342\275m\352\265\276\225\327\001>\354\005d=\357\375\006\276\272\020\343\275\200x\004\274O(\022>\270\265\024>\301\307_\276\"NC>_c\233\275Z\237\025\275d\304l>Q\235\333=!\031~=W\262\214\275\244\345I=\322Bf\276\246m\317=\343\232\237\273\272H\010>\261\272\251\275>ZY>\001\344P>\276\036\221\274X\253\023\276\273\030\220=\220\360\372\275\337\213\'\276!O0=G\3044\276\234\216\023\275)y\332<\354\255\312\275\305\350\361=\267\021_\276o\220C>\350c\230<\314d\313<\257\306^=\001\266\n\276\352\223\034>\240#m<\252;\260=\021\007\205\275`\310\r>\205\341\366<V$`\276\004I\200\275\347E\372;\036\3141>Z\302\030\276n\026\336=m[\003\276\0040\245=C\325X\276x(\237=\240\307\254\275\337\267+\2762l\215=_>->^~\336\274\036+\230<\241r\017>F\205\030>\251\024+>J&\377=\310wz\276>T\335=\232\320\237<,\234f\275R\204l\275?\323\230=}\362\265\2756\307Z\276\305\264\344=\350wT>\264\237\362\275N\312\t\276\202\272\344\275\304\372t\273\330@.\276!\264\001=\333ed=\316\207#\275\3602%=\256\341;>\007<\200>\326\005\024>\2238\006\275\230\204&\276\304V\203\275\033\006U<\256\326o\273\317\334\313\275 \033\375\274\036\016\223=z\273A>\351\372,>\350\034\213=\376\002\334\275\272\254\r\276\"6A=\262\353N\275!8\306=\233u\347=\214h\026>\351\200)>\tL\030>\363\025\321<\231\204\215=\221\022\262\274\005\371\">2Y\233=\275\313\377=\332\031Z\276\035\327\202\2746G\314=#/\277\275\370\034\314\275\206$\334\275X?\'>[\010\016\275\366\324\031\276UI\357:\375\234\221\275\021e\224>\324)\225<\360\032.\275\2229\241=\302\254\010>9_\226\275\277\001w\276\374\352X=\245\317\224\2752\262\021\275Fa\325=\354\246\213=\233_\237;\367\244\017\275\\\242X\273\031\251\220<\373\026\271\275e.\367=\206\340:>-Dz=\265\002\353\275\222-b>i\236.>\263?\003\276\344\250\037\276W\214\265\275\263\302\236\274\205\220\203\275d\322\377<5\307C\275\3141h>\250C3=\302Q9\276\351@\340<t\354\022>r\222\336\275\027\362\247\274\337\314\347<\276\021\030\276\010\361\227=\354d\202\275wR\350\275\200\273\335=C\031\232\274)\245\222\275\007\013k\276U\276\204\276\r\206\002\275\331\312\253=\271gT>E=\273=\324\211L\274X9\'>s\254\240=\313\226\206=\213\273\033\2764\204\201\274\220\204C\2750\323\006=\226`\273=\341\330A>\240\t<\276\002\275\361<5Q*\276*\002M\275\335\265W\275,\274\345=\371\263*\274\354$J\275\235\261\344=\370\263\t\276$w\216\275n\310\216<g\264\331=u\203\256=8\271\265\275`\007L>\030\326R\275\366\034\236<\3262,\275i\022\201>\270\203@>F\335\r\272-!\367\275ib\003\276~\347\335\275\316\n\216\275*\231\200=<\312`\275\003\345\006=\3669\031\276_\204\326=\301H\007\276\252&\345\274\276,D\276\314\327\201\275\201Y\207;\006\007\224\275\025}\221\274\317\240(\276a+v<\323\240\343=\353\256\034\275=o>;\030m\363\274\223\246\277<=\257\321\275\262H\271=\216\003^>\236\311_\276-\021Z\275c\360Y<\243@.>#\316y\276LF2>\376K\035>\020\254\035=n\317\303=3B\335\275[\237\323;\301\305>\274\341\256\312=m\3711>ML\r\2766\373\030;\004\014\254>\324k\335=\177\334\030\276\343mR>\271\2246=\360S*\276\022\023\332\275Zav\273\210\371\360\274\321\230d<\222\311\275\273\264\n\217\274\235\376!=k\371\314<\327\224\266=\255\320\305\275\247\205g\274\215\3354\276\t\327\342\275\310\353\036\2769\003\254=\272\266\360\275$\310\250=LG\274=\302\300D<*7\033>r\220j\276\277\326\377\275m\320(\276\371\024\021\275\330\236\033\275\033\r\305>\310ev>C\243\027\275\266\313.=\342\243P=\2668/\275\205\350}>\367\307\205>\317nQ\274\035\371;>\263+\274\275\314\220v\276RE\034>\2552)\276\000(Q>X3\367\275\017$K\276c}\232\276v\322\021\276\240q\003>_a\320\274\316\212\332<\037\037>\276z\327L\275s1\032>\335\272j\274\013\373:>(\n`\276)v\317\275%\336s=\216L\230\2751\177\250\275&\321V\276\247\\\024\274j\013#\276\320\242\005> \252f=L\227\221<@r\214=T\027\203\276s\317{>\235P\265\275\252\017\230>\331\336/>\010\342c\275:hs=|\242\030>\033r\340<\311\001\364=\237\214;\276\210\3428>)\031\035>\206\374K>64H\275\016\001\203;o\n*\275\302\0026\275\376\311\001\276\346\027\307<TD\232=\003\021t=\215@,\276O6\272\275\344v5\276IH}\275\\\177\355=\0178\320\275 \302\217=9\251\257<\t\2303>v\005w\276N\0012>\214+\202<x\021\214\276\000\372_\275]\205\001>=\017X\275\206=\021\276\337M\232\274\314\201\260\275\n\211\316\275!q \276\245\363,\273\266\036\234=\\\317\332\275\360y\245\275\277\360\307=m}\371<\243m\013>\3408\223\276\\?\330=\370yu\275\260\364\037\275\233\023\024>hV\323<\340x\257\275Y\374\006\276\362\035\\>\201\254\311=p^\212<\234\237n>Kbn=\231\t\211=\374\260W>z\311\026\276Z\274\314<\367\223\251\275\322\022M\276>\244\202<W\212\205=\370\320B\276\240 ]\275\374Y\004\276U*\017\276\336l\226\275\351\205!\2760\001P\276J\203\213\276\261\033\225=r\234\007\2766\020\225<\244\020w\275\022j;>\366\252\035=\333T*<n4\231=\027\253\357=\361\255\212=\276O\027>\260\343o>4\341L>iW\271\275W\335J\274\315~b\2766\304\236\274\353\037\254\275\211\350\016\2763\244\006=\2140\343<5\270\213\276\320z\275\275\274BN\276^f\007=\3760\354\275\211`i=90\034=\035P\207\276\005\376$>\310\303\001;\356\366\021>[\212\000\276\005%^\276\016\305H>\023j\314\275\312=->W\314R\275\2457\241\275\225\327\337\274\366\244\350=E\021\236=\272\326\227\275\205\2247\276\354 \013>\245]\273\275\032\0161\275\322P,\276(\036\257=\206\207\301\275j\022\223>t\204\005>\214\000?=\245l\337<\256\353\030\273%\004\333=\246(H>\356Y\001>\376LY\276S\001\336\275/\265\035\276\247\233\016<\tL#\276\212\022\200\276\357\225\201=\321S#=\001\360@>\256a2\275:nj>b\205\311\275m\216\205\276\205g\246\275j~\341=\353\336*=\2373\251=\337\371:=.\256*>e*\221\276\220\206\366<\262\367\301=\321b\003=>&\010>M\3444\276E`z\274[Y\236=\230\364t=\236\005\347=\240\320!\276@b>>*{\241\274:F6\276\',\257\274\367\3027\2760\325\036>\265E\033\276A\226\236<@\204/=\016\to\276\001\234<\276\0137\201\275\277\332\t>\000\367\021\276\027^H=\217\267$\275\3352\320\274\243\037u<\206v\260=\267\303\036\276\352@\204>\267\232*\276\222\342\314=\341P\352\274\227l\252<\2575==7:\204\275\r\371\265\274\232YB\275\022\241\365\275\251\362[=\372\346P>\017\tI=\221\240\240=`\342\200\276\370\033D\275x\023G\276\366\224\261\2756\243\005\276\326\251\030\276f\211\304=\262\023*>\201\2278>Bm\017>xJ\240=g,\205>5$0\275\264\307B;u\311L\275\203$\276\275\305FC\275C\304G\276\344\360O>dl\027\276\232f\016>\367\336\016=\210\260\246=\t\222\322\27503\336=Z%a>\240\010\321\275I\340q\276\256\021S\276(\r\000=\351\272b>\311Fv\276\272\266m<\\~\253\275\314\303\275<(LA<k\306\373\275\201\3211\275\336\330\251=\355{\027\276lxk=\232\345\304\275lj\237\273\232\3517\275\222\016\035\276r\326\314<\023\235[>F\270\365=/aA=B\224h==\n\262=m\217\010\276|\002g\276\024\275\332<\030E\235\276&\022\247\275\223\220N\273\212\326n>d\274\377=V\031\300\275\022\271x<N\222*>\033\006\206>\360\035L\276\025\324\263\274V<\315\274)8\007\275\245\300\234\275\307\373~<\236_\032>\367+\023\275\241*D<aZ\023\276pB_\276,\010\300<9\377\351\274\020\037\336\275\316\260\344=\377UU=\266\265D\275w?w\275\355/\200\275mA\t>9I\031=\202\037^\275\205c\t\275]\374\330\274\226\221\246\274\2743\032>hn\237=\013T`=\0216\322\275=\334\334=\024\350\234=:\274B\276\224J>\274\0021M\275n>.>\260F\275\275w\226\321=\201G\223\274\336\345}\276\227Gf\275D\233\244\273\016\213q=:u\202\276 \224~\276\233vl\274\252(\020\276\016\325\246=\344\262\027>TqN>k\276\325\275\362\204/>+Q\266\275\366\315\210\272\000\356\267=\341\237\022>Ce\n\276m\034\313\275\347c\345<\372&*>\214:a\276\367\200\352\275\357s\333=\341\310\326=6\221\353\275\277|*=\026\306V>\371\000\371\273gSc<\206b\314:\262e\211\274\357\211\233=\307\364\251\275;a9\276,\274\220\275g\305g<\332^\002>\352o\023\276\231\027\\>\035\0342=\005M)>\025\264\021\276I\253\035\276\234\201\312=^\030\370=\235(,>\330\372\002;ARE>\214X\007\275\352\003u=o\354\347\275\351r\250=\205\254\t\275\3118G=\350\023\371\275\013\205\366=\362\376B<\231\332\363<\341\027\346\275\371^\001\276\200\300\323=\212\3275\276\276\200)\2767\223;\276\376\356\257=\320c\\=\217d%\275&{\213\275\342\243\270=\021%;\275q\335q\275\270f\216<En\347=~\031o>\001\322\345=\024M\220>\234\014\345=\324\024\016>\224\206\016\276\236\010\321\274\227\223\221=\362X\232\275V<4\275\266pg\276mj\207=Xp\254;\023\2007>5\264\321\273Gc\"\276E\307\301\275\221\021\014>ULO>\246\230\256\275\022:9>\027g|\275&\3111\275m\274e>\347\222\037\275.B\256\273e\314\370\2746\354\352\275\235o\340=\216L\310=\256s\220\275g=\334=\037\265!<\260\337\005>\026;\257=ewH>\020\314\020>\244e\0318*\224\344\275\217G\342=@;\300=\003\264T=\005\322\277\274\273i/>\240\000`>\225{\234=\037Y\302=\031[V\276\257\207\326=\337\316\232=l\033\335\275\212Q\010=\347HU>#q1\276\000Y\361\275\350~\031>\327\315\374=ZV\'\276\225\221\263=\013\017\367\275\030\264s>\227%a=B\354#>\212\001\200<E-\372=\326-\t\276cb\241\275\376xX>\336\373P\275\025\317\203>%\254\267=\310\0225>\007\307K\275X\211\214=\304\003\307=\303{\033\276\353@R\275\223\351\032=\251\"o<?8\023>\213\306\004\274\016uh\276\030U\301\275U4B\276\016\276\305=\356\006\226\276\n\220F\275\000h\367\275D\005\216\275&@\335\274\361\t\030\276\2055\221=HS\303\274\013m\003\276\225\3236>\326\276\263\275\025l\261\273\321;]=\356\347\222<\250\355\203<\255Y\037\275\207\0244\275B\323\225\275\267c\261<\035NT=H\343\316\2757\025m>\037\345C\276duy\274>{\215\275b\205\027=hz\017\276\313\307\254=\243\371\262\2755K)>\"\204\236\275\375$j>\005\327\n\276\003O\013\276\3717\205=&\322*=+\3575=\361RE>\327b\r\275\341\371X>\326m+\276\3512z>34\262;wZ\353<\023\243\270\275\341\333\210\276\007{G=\262\007\210\274\270\221\017>\004Q\005\275RJ\006\276[9\240=\361\312\304=V=\227\275\220\023\244=\277\020\210>\340r\205=t\210\343;\263#Z>\323\2721=e\241*\275\007\267\274<\312\302\351=\000\343s\276\r\371C\2766\333\036\276@\377t\276 4\340=\337\212P>\274#?\276X\n\003>\264;*>\252\252\233\275\224y\303<\033\032\024\276+`\207>(+\007\276\372\006Z\276\013\032C>C\303\273\275~\322,=\323\r\275\275O8X>z\247\'>%K\236\275\365\202\272\275|\246\005\276:^\036>\305\347\207\275X\334[\276\202Pt>0\2376>\211\222\307=\037\356_\276z\0310\2765\017\362\275\245\364\001>}\366*\276\'kY\275\006\037\036\275q?\355\275\211\202\022\275\214\377J>\255\235\363\275\333L\202\275@g9>\303\t=>\364Gy<G\266\213>P\377\267\275j\223H>\303\271\001>0s\271=\261t\357\275V\033\000=\001\374&\276T\027\025>\313\013\246\275\34082>\024B}=\017I\201;\n\270o\275c\244\027>\306\027\"\276%\0277\275\367\326\030>\004\214;\274\325@\257=\376v\227<\364#\376=\210\316S>\226\353\364\275\344,\n\2769.\024\276\261\330 >\230\357\313<\214\247\255<\024 \033\276\t\272\r=\217\225\273\275pZj\276\3030;\276\270\013l<,Kp=\215Y\234\275\211:\\>\251\312\255=be<>\216\250\023=\032\333\313=W\2614>\364\3075>un\032>LcH\276.\212}\276\315k\035>\023\232K<T\013\036=._\005<@\203\016>\360\343\325<3\337\203\276J\326\036>\232\307\022=\246\375\304\275\200\234c\276\342\034\327\274\345\325\314\275\033.\200\275\346\357]\276\312\334\253\275>P\207\274\307w\316\275\2027\034\275u\014\211>\323\004\"\276\250I\205>dG\243\275\272x\036>\364\224\205=\333DR<|I4\276\033Mn=\332[^\274\241\205\212=\320\240M\276\207\215\205\275\301D7\275\230\262\274=\302\300:>!\202%<\"4\311=Z(5=I\215G\276(^\003\276\334\255\316\275Vs%\276\337\240\256\273\276R\346\275W6\036\276)\\(=\r\250C\276\227\366\032>\033)U=\022\232\006\276\037N\235=O\313\347=\221\343\013>\247/N>6\345\336=\222\303\226=\021\2548>\364\356A>\274\306!>:\340:\275/\312\207>\210Z >\265_\211>\234}\">\037em\274\3656\211\275\266\254\014\276\037\013*\275\367\302-\276lnd>\245#\265\275\340oR\276_\335\271<\\\364\272=\332vA>\031\342\016\276&q\225=^\365\005\276-=\244=\233\200\025\275*\367\371\274\264\372b\275LAI\276\3629\266\275\'\270*>\223\231\323=t\217;\273*\242\224=\330\0066\276I\375F>K\317\315\275\014I\001\276\365\317\331=\311\242T>\022\267\036>o\277\001\275\027O\020>\001\013/\275\211\342H>\2135\336\275\364\304\326\274@\247\267\275\313x\256;\370n\240=\221]\263=R\230\034\275R\302@=\335\3770\275\347h\341=\374a\276\275\030\016a=\371\027N\275;\331\371=$!T\2769\"\216\275t\2259\276h\320I>\355\034%>\003q\271<\274c%\276Z`%>\304%\036>\014\244\034\276\347\260\305=\254<\222=;~\361=\322)#>b[\237\275\210i\240\273\240\355\234\275\247\377\006>\030@\304\275\200\010\030\276\206\377\253\275\265\324j\276/\017]>\224n%>\315N\346=f\265\200=\341\311\001>h\255r\274{\206\307=\367\324!>\351\370\313=\233\016\023=\302\236\'\276\020[\247\275k\3115>T\301\024\276i\243\304=u\301\030\276\207=\030\276r\221\177=\322y$\276\301\274{\275R>C\275|[\214\275^\252\010>\356%\243\275\0242\230=u\353\205>U\235\025\276\374\343\234<Mp\212=\256\311d\276\300K\021\276TzS\272\207\372\267;\030\031\270\275\200\304\030>C\377\232=xZQ>\373\026v>\261*\217\276\332<\221\276\036\210z>\3326i\276\272\347\277=\220^K>\230\234\327;\332\033\244\275\274\265\366\274\351&\343\274\266\264\203>\207\353\273\275}\234S\276W\']>\321\260u\276\271\234\225=+\263\217\274r\'u\276\026F\375=k\230\376=&D\224\276K?j\276\314A/\276\205nf\276\305\002%>\326\252\335=\347\322-\276\346k\210\276-l]\276\263N\273\275\236\225\260\275EFK=\267\215\216=9\254\n>{\270\205\274\210Q\317\275/j0\275\353!\226\276\026h=>3\315\262;\213\337\236\274\023+\352\275\337~\313<:\2545<\031\014\014\275\245h#>\233V:>9\201\206=\013\027M\274\204\234\016\275\347{B>\225q+>\272\216&\276\355\241\316\275\360(9\275U\346\004=\033\326\320\275*\363*\276#\330\213>\344kr>/\300G\276\227Q~=\306\030\036\276\266\274\303=\253\242\001\276\251\357\325=\200\370%=P\023\263\275@\026\216\274\005\357\240\275\277\026\260=\000<+\276\251RQ\273\0167\025\276\037$\025>\341\205\\\274\200\326\026\275\244j$\276l\2733\276\027\347\033>,\221\255\275\206\211-<\323u\336=\227\263\024\276H>#\276\373\370\022\275\252\221R;9\213G=e\304\362=\251\370\225=<3\247=\317\3112\276a\2653\276!n\264\275\317\366\340\275\023m\200=\321\0300>^?D>|\274\205=|}\335\275\247\020?>c\302\'\276\267\007\003\276\311\315W>2\032\373\274\336\324\364\275\252\345\210\2760D\312\274\301\233\023\276.<\261\275\352a\260=\321\332\363\275\230\035\007\275Rp7\275s\301\026\276>\027\322=1\223\321=\362\253\367\274\330\317\205=h\300?>(\017\031\275m\272<>j\224n\276x\016\034\276sT\205\276\r\010\341=\230rP\274\023\257M\275\215\002\203\275\323\365H=/\336\013>(AL\276\312\370\225;\t+9>\215\345\016\276\226\232\341\275\n\357z>CD\303=&E+\275\n\005->Eil\275\241?\\\276\037\021\027\276D$\366\275\217C\366=\231N\251=]?V\276\010\337!\275\n\356\206=\263\310\333<_\014\035=!\310\006\276\3676\003\276\200n[\276a\210\217\275\277j\t\276\365\251\326\275\2033\227=\244\333\017>X\026\000\275\256\213X\276\246\375\240<`\307r=\267\333\266<]\024\326\274z\316\031\275\3551A\276X\325\245\274)\325\002\274\266s\236<\'\\\320\275\365\220j>\226\311\254\275Z\204\365\275s\210\005\276\374\201m=`Q\360=r\247\357=&\021w\2752\243\005\275{J\010\276\316pZ\276rz\242\275+\261\215\276\210\213\263\275\244\343\304\275f\331\236\275t\2412>\203\326k>\3447\t>\253DX>\212\376Y=\"\033g=k\373\007<G\303\232>r\2418\276\031\256\223\273r8\262\275Dd\036>]\374\200\276\376\302\014\276\014\3717\274s\2452\276\265\350a=1\324\357\275\364h\224=M\275L\276\305\220D\276\366IT\276cs\321\275\010\353\254\275\265\226\267=j\013q\276\376\346\272<A%\257\276\226NL\276\276\315\025=(\020\353=\247\030\205\276{U8\276\024XU\276o}[>]\201}>\357\337V\275\\\250\277=\375\313\010\276X\217v>t\263\234\275\330#\345\275ZE\230\2711J\227>\220\246]\276-\3675\276\335I\332\275[\025\346=Y\"Y\276\001\374\021\276\213P\004>\234#\013=\"\327\371<`\227\032\276\257:0>D\344\311\275G2\177<Y\373Q=p\250\200\276\231Bs\276\2428s\276\217\224a\275\302\250\373\274]\314\321=v\256W<Ge\027\276Z\263\321>p\377\352\274\217\370L>qF\236\275\260a:\274KWv\275qNg\275\344\274U>>\213$\276\212\2524\274L\322l\275@\220M>\351\004\207;I \365<\311\373\262=\002\003T<\3001%\276Ru]\276<\247\005>k\2526\276#\032\301\272X)\014\276eU\304\274I\351\233\274Q\360{=\347\033\";\335Fs=\027\001\033=\004k5>\303\350%\276`h\030\272\035\217\017\276q_\267<\300/8>\0064\357<\274\007\312<\267SC>h\243a>\031hc\276\251\237\357\275/\360\303=\"\372W\274\335\247\212\275%W\366<]\010/=\003N\272=\347\341%=$\262\373=\3735\033\276\272\351\332<=\022c>R\0065<R\253\n>\214\302=\274\"oz=#\323\376\275\203\000\361\274\365~A\275\334\207\230\275\335B\004\276\315t\313=\002\007\235=h\375\227=\344Q0>Q\027\">\271\302\332=\213\207\010\276T\212\311<\270&\004=\311\004\023\276d+\004>\347+\210<\322\374\013>g\343I\274 \013\226\275%\200D<*\304\350\275s!M\276\n\306\337=DU\265=^\375[\276\232\260/\276\201z\363= y\031\276\373\335\037\2763\377\035\276&\333\301=\372Y\001\276\325\330\316\275\312\353\026\275\203[N==c\254\275!\363\237<\271\203\260;\2774:\276\2077\245\2743\311p\276<\321!\276\345=\374\275\301\201!=\r0J\275\021\217\377\275\374\261\035\276\274\025%=\371*C\274C\225e\275\233\204\321\274\367ej=\223\225\003\276/Wd\275S\337Z\275\356b6\276\350w\251\274\221\227\311=\t\010\204\275\266lP\276( \002\276@\374\261\275A\021\307\274@7\302\275\371Y_>\335\335.\2753\205\366\275\037\017\014\275q\306\006\276\364\212\215=v\030\351=3K\320=\205 \017>\036\300\376=e\366\r=\234\340\270\275\212\035\263=\257`\314\275\275\204?>y\002\014>\344\024\273\275\252y7<\213TD\275\370<4>\311)(>\307\370\372\275K\201W\275\2369\214=w\321\023\276\373]8\275\353\334n=\355b\n>\337\203\304\275\364\327\021\276\310\334\236=4_v\276\241\352p\274\271[\001>b9\n\276UA\007>\210\376\200\274K\020\305\275\364\302(=\245\231\353\275\264g\333\275\273=\024>\256%F\276\273Z\\=\256\365\n>\203L\231:\221u\216=\334Z-\275\177\257\312\275\314\313\004\276);\372<\260\356>>\316\241\023>\300z6>\303\204N=\'\355\221\274|\227\214=\234\340\326\274\332yq\275\332\265\212\274\177q$>=\250p\275\371\022V>\321\372\014\276\030\362\336=\222\230\336\275<\251\354=\3772\371=\227\347\031\275\010\023\343=\026\022\207>O\227\'>U\003\230\274\2627\262=\264fm<l\375\r\276|\264\375\275\271\"w>\316P~<\207.\374=$?\214\275\260\3336\276\376<\t=\316*\033>\220\210\217\275\275\206\224>\366\301=>\347L\244:\030lO>\270%;<aY;>\026\251!>~\334U\276\253\025\315\275\032\351P>\243\020!>JGm\276R~\304\274x\203l=Z\331\201<\317n\253\274\031\201\232\271\247\335\037\275\246S\016\2760\\k>s\217\024\276\217\363\177>#\277@\275s\226]\275\351aE>\237\365\223\275DY\352;G_a\275\220\260\243=\343\356a<T,\030\276M\270+\276\270\035\340\274\256 \221\276\037\304j>\t\371\220>\241\342\342=\316#\244\275\007FI>\026\240\010>|\037\r>\347\020\200<1\214->M\030\312=j\233\013>)\231\353\275\327\320\304\274g\370\360\274\262\332\322=\3560\351\275\327JJ\276\312\365\310;\273-\030\275\376)\333\275s8\373\275_0\335\275 S\221\275\216\266d<\325m\034\276o/(\276\306*\323\275\030\017\316\275J\266\224\275A>\031> \347\022\275L]\276=\033\330^<\240\232\322\2759[\277\275\254\231\303=q\354\010<\\\215*>a\372(=\232\211D\275\220:t>`\262\267=~\202\354\275!\327\350<R`\004\276f\\d\276H\'\323\275\304\316->;\276\241=Ov\346=64j\276\014@L>:\347\221\274\2573;\276I\253\034>\006\275\220=\220\243\003=\361\356/>\256\371\r>\356\235\264=\212]\254=\233m\372=G\335G>\004\277`>E\231G\276\360ee\275\r\337\023\276\026\323A\276S\277\261\2757t?\2749\303\254<\355\'\256=p?\337:H\3309\275~\205\014<\355\027|<\2179)\276;\310\254\275\206\253\250\275\272.=\275\336MP\276gE@>\347:W\276\334N*\276\212[r=W\3126>\367\357M\276\250\3019\276&\275\346=\35771\276\n\301D>\255\0203;Cj\357=\2475q>r\356\323\275\014\363\022\275&\001$\275\371Z\332=H\263\311<\305\271\216\275\273\277b>\204V \275\363\230,>\263\236\"\276\237\303\326=\243:\241=\323ml>\225~\t>\334U\210\275[\216\306\275p\223\004>Dg\210\276\340\223;=x\321(=5D\246=\r\313\262=V\202\335\274\004 \241<9l\317=\013\007\334=\032\024*\275\373\261\007\276\026\376\215:\267p\035\276\225\316\254=\341\021\021\276\322\021}\274\211\017\331\275\234d\002>\025\226F>v\375\034>\211R\224\275\3223\353\275\265,\371\275X_\321\274\021\257E\275\016,\311\275\037O\244\275.B\324\275\024\300W\276l~[\276%c(\276\357\212\244=e#\206\275\214\362\n\274\241\362\001>\016\362\252=q\345\t\276\303\306\230=A\021\307\275]\375\032>\317\207\033>\354\323\353\275\177\214\331\275X\300\211=\035\275\223\275\244\034N\276V\205\006=\246\312\002>\331\350\277\275\3321\354<\343\350\347\275N\205\334\275\341\342\202\276\022\347&>\211\371&\275EK\276=W&1\2761`/\276\r*h\276&q\t\276\005\255\203>\006\322\253=\324\277\032>\234\3679\276\355T\301\275\177{7\275\265[\034>\215;\314=T\225\014; \314\356\275<\001\004\276\235\353\020\276\347\230\004\2765\351;=\214B\362=\2721\034>\306\254\220>$\367\360\2741d\262\274s\016\265<x?\201\276\261]\320<\367\003\205>u\356\025\276\271u\245\275_\3152>\316.\002>t!\001\276\251\266F>\253;m\276iK\203=\350\343L>X\0252\274\344\275\260\274\376\rs=\3616\206\276>\214\313\274\340\022m\276\265n\'\276\346c\247\275\236-R\276\226\220o>\002\347w>\263\n\305\275]\307%\274\322\036d\276\256E\264<\341R\362=\376(r<h\003\r=\371&j>\306\377\374=\225i\244\275~Ai>\232=)\275,\006\276=1\020>=\272\231\352;v\227\324\272\325o\"=\230\361\013>\322r\214\273K\247\314\275\363\325\310\275\013\373\037>\321\021!\276PS\006>\271\003\263\274\250\375\030=\370\261i=\276\212+\273j\245\245<\325^\234\274\022\022\217\275\236\274\037\275a)&\275\n\313\247=2v\030\276\301\327/>\022?\331<\371\204\037>\201\324\276>\275\354%>h\251Q>\356\014\037>U\026\264=\020\333\000>\220G@\276Z\264\200\275\000\026\220\274\205\205\376\275,2\263\275\007\035g>\231\277c<\313\376\240\275\010u\336\275n\211-\275\377\276\033\275\020[\016\276b\236\263\273\211+,\275\307t\323\275D\325\314\274,\326G\275\2458[=\234N\215\275\307%\025=\347\204\010=\035\001\237\275\002\'|\276\347\377\371\275+j\213=\341\032\306\274\376\236P=y\200\037>Uv\203\2759\312B\276{Y\016<\031\0374>\356-\316\272\215\310\030=4S\000>|\010T=\033\301?\2765\262\257=\377\034\223\275!\t4\275\232\317\330=\265\200\241=\310\310%=x\023\007\274\262\232\272=\357\216\204\275B\215\227\275N|\304\273\035\236\021\276p\007\354=\372\033\376\2751\364\322=\350\356\t\275\\\361\233=\202b\203=\250\2210=\311\020\232=-\242`\276\243\260-\276\350\2639=\023\2244=\346^X\275\330\336\320\275\224\305\352=\241\274\375\274\000\373m<\024*\333\274\010\250\022<2\327\320\275\010\244\367\275\rP\005>\014\316V;*\020W>\3318};\034\023\030\276\021\221\255\274X\007P\275\301,\327=\210\275\007\276\006\270\317\272\254wZ=\300\243\022\2753\274\n>\334G}\273\367\342\241\273\020n/\276\004\337c;\253\004-> \274j=\333\227W=%\321\251\274\3313\035\275\002\243n\274\314\331\243=\024\236\032\276\3223\357=,:\023>\371j7\276\216\241H>\325J\263:\224\023\200\276\353\267\366<\376U.>Ds)\276;\2170>}\304\004>\037\244X\275\264G\017\276Y#\262\275f\361\006\276\364\372\246\275\032NX\276\254\212\\<^1\317=\256\356\325\275\034\275z=P\233\361<#\236\302\274\005\216\027\276\222\311\211\273\245\264;=GZ.\275nc\364=aC\003\276\343/O>\026\214\037>\210\353\014\276ZwL\276I\334=\275\016\213\335\275_1\035=\372\345w\275\2341\256;j\260v\276\234\332\270=\'\240\017=\r\276\223\275\256ZT=w\224Z>K\0233\275$\020\272=\210\002\320=\354\013\340\275_y\037=\210\326N=/\260\201\275^\2208\276\374\304F>\335\317\270\2745d\312\274\246\036Z\275\337$$\276u\323\323\275\361n\202\275\236E\202\276\277r\201=&\260\206=S\254\032\275\250\021\270=\206\303<\275m\375`>V4*\276\230gz\275r-\341<\342\224\207\276\365\214\272<4j\203=vCg=\373Q\003=ml\255<\370rg\275\263\243\020\276\240\020\317=\271\313i>;?\303\275\321 \227\276?(*\276\210\273G>_\372\351=\236\003\232\273]2l\274K\240\002\275 x7\276\325\372S<h\200\371=b{\347\274\242\351\301<\253\324\034>\253\3410>v\247\006\276;\340\204\275\355:\t\275z\036>\276\3555\314=Nj\200\275\365\372\201=\331\202\303\274C\206$\275*L\241\2753\035\212>3\216t>Y*_>c\277\017>Y\256\007\274\345\240E;9\214\237=\235\267\304;xH\021>~.>>\233\204\004\275g0q>\316\364\261<\226\375.\276\345>\266>C\360m>\177\211b\275\254Nj>*\036\224>\252\002U>\230\251\204>\235p\303:\375]\000=yG<>F\023\002>\330. \273\177\323\225>\320\272\214>\316\370\366=pT:>\027\214l>[\013,\275\245\3709<|\252\222>o\361->e\337\035>\277.n\2759/\345\275I\241\224\275(\322\220>\241\333R\275<Z\332=w\362\022\276\353\203\257=<!\244>e\367\021\274k\264\206>\023\033I>[\013\253\275S\253(\274j\2645\276\263|\222=j\r\342\275\002.f>*e\255\274\205\000\274\275X4\n>r>2>j\367\272\275\204\020\031\275\003\222\340\275\356}J=I\351\036<x\221\313\275Uq\346=,\031\003>\'\201\025=\036\211\263=\301\3274>2\025=>\307\217\266\274\216\340\035>(\323\242=\014\274e\276\013Q\235=\217^\001\271.{=\275\007\312\273=$\3300>]\313\375\275\230\354+<\260\3709>\232\325|\275\304*\274\275\376{\330=\211\365|\274\245\013\301\275\225\r\222\275\307\217\324=\247D<>\331\312\030\276\366\222*>o\305\233\274\022\032\034\276\241\016+\276E\013u<\302\375\214>\375a\220\275\371\320\332\275\243~\005\274\001\206\250=\332\375\257\275\223\350\201\275Ov\316\2742\206 \276\251\001\255<\007\260\313\275\255DO<g\300\210\274\234\376\317=\337\301\353=\257\350&>\367@\331=o\3104=\304\210@\276\214\230\027>H\036\023\276Q\014\r\2751\202R>\231)\022\276\233\234(\275\215\034\363\275\370\333\t>!\320%\276\177\241\236\274Ng\316=)\365K>n\354\024<-r\231\274\305\274\231\275\261\230(\274\3357\301=\3047\330=\027\374\022>{ \245\275\300\n\236\275\265\370>\2769\030\003\2765\343\211=s\313\023>\205IY>\276.\024\275\326\301\013\276\261\333?\276r1/\276\243B\256\2758\313\231\275cF\014\276X\3060=W3\266=\201t\357\274\t\234\251=.ya=\210M\242\275\3544\361=#\024\356\275\241R\022>1\367\301\275\241\250\002>\336\267\003\276\332\242\005>\211\272T<2\030\013=\257:\214<%-o=\246\223\207\274\213\030\341=Y\372\310<\356\376\037\276\343\331\010\276\345\347\330\275a\311\025>\330%\024\276?g\320=\224\025.\276\252X2\276:6\366\275L\251\027\276\302\221\302=7\"#\274\346A\031=bp\032=\332\347\t>\345F\030\276^-\352\274\013\363\202=\336\243\327\275\337\340z\276\232\032\201\275\252\252\275\275i*\225\274\0135D>\335\030\002=\325\2103\275\352\364\217\275\247.\342=\330\370+\276\270\256\360\275[\347\030<\351\200\373\275\020\267\267\275\014\246\316\275\350\375^\2764*\321=!\023q>#\n\214=\377\250\205\276\254F\320\274G\257\035=\026\375\276\275\375\336\353=X\347\251\275l\276f\276\375\3759\276D]\211\274\\\303\013\275\\(\027>\252N}<:i\225\276 \245\334<\2433\022>1O\000\275\2149\214=8:W<U\375\377=\307\254\304:\261\022\022\276\330\256\003\276\276\216\246\273\373W\001\275S\362J>W)\211=]&\'\275\317\255\222\275\365*\022\275l4\273<\211?\233=\"\023\002>\367\325\031\276\010\253}\276\323n\231\275\\\235\301\274\273\307\021\2762n\027>\305\205:>\303\\\355=\216\n,=\335\327\322\275\032\353\336=M\327\201\276\020\353V\275p\022\030\276D\312%\276\360}\353=\341.\016>\370\217\365\275\200\214(\276Y\233R>\326\277\036\276s<\222\274\257\364@\276\n\342\033\2764\332\t\276W=7\276\340\304\031\276\353C8>\226\3349\276H\\\232=\270y\230>\376\301\226\274h_f\275\277\211\354\275\223\230\312=\364\021=\276\276\226\347\275o \312=\274\210\177\275\274\216\350=\356I1\276b\374\033>^U\355<\005)/>\360\336&\276\025_$;n\360\"\276\366\023\006\275A\333\035>\342W\014:\007\371\254=\362}\016=b\007Y\275\222\"\261\275\342(\000\275\002\377\256<W\027\224=\274N\316\275?\340\036\276%v\021\276\270\347s\275\026W\010\275\361B\304\275\351$9\275\306\303\346\275!:\\\2761R\223\275\310\201c\2762\242,=\371\240x<\014\337\r\275\026L\371=E\376\247=\273\377s\275\377\253\277\274\233\no\275\342\007\014\276\017\003\307=\264\303?=n\245\235\275\024\235]=\020M\306=I\000\317\275 \310#=\017\242\210=\250&\303\274q\003\013=|Y\217\274Y\321\327\275\324\007K\275 \017\302\275\376\345\230=\225T\305\275!O\323<\237\t\010>\301V\342<Q\251\027\276\021R\000\276\177\346\216=nQ\276<\355\344`\275\321\265T\276\225\351\221;w\033\213\275\020\252\374=EM.=(\216\221\275\260\'\013\276\034a\354\274\006;\226=L84>\302,\243=\007X\244=t\271T>\246\234)=\013\252\357\274\300>2\276\277@\225\275\366EK<\307\233\211\275Y\260$>\235\207)>\034\2377\276\261\035\037\276\271\0313>c\345\242\275\230\036I\275\2663\344=\367\212\022>\275.C\275\373W\206=\261\231_=g~\035=\016\362\312\275&*\313\274\213,\320\274A!\334=\022+\216\275\202\320\330\275\200-\325\2752\227\213\275\250C\231\273)\367\003=\007\361\276=\222\222(>\362\375|\273\370\300\000<\230}\034\276{\233Y\274\207/v\276\377\022\211\276}\022\n\276TN\241=c=\036>\236\003\377<X\343\025\274\207S\030\274\362?\233\276Ar\352=\2613\273<\245\332\">e\017\321=\206m4>1\346y=\344j_\276\332|\021\276\352Yi\276\266\343\266\273j)\200\275\330\205B\276j\275\266\275\312\361/=\301aK=V\016\'\276\220\213\n\272\270\020\314=\300\350;>\254\374+\276\221\365\370\275\334`\002\276\334_\034\276\322\300\306=\320\0350\275N\361\002\275eI\234=\266/\344:\264\276]=Od\030\276\026h;\276\231\352\224=b\014\372\275\202\221\256=\260\\\002\275\023\277\376<P^\346;\371M4\275\233\216~=\177z\333\275D\0305=\n\263\266\275\336~\277=\266\033\212\273\365\226\003=\326\224\370=\350\226\001\276\332\253 \275\356\3073\2764\222=\276&\3610\275\334\342\367\275\273\267G<7Ku\276|\246O\276\212\267\325\275\255Q\002\276\251\247\177>\247\312J=]\363\331\275\331\014\203;\010\2251\276\322\nl\276\216\307\032<2\222\021\276\376`\315=\027*\374;\024(\032=\333\244\014>{\372\021\276\223\345\\\276\336\326\355=?d\013\276%\371\267:\310\036\212>\241\375r\276\234a\341=\016\036\235\274\204f\241=w\273\204\276\254 2\276N\242\305=\266\224\221>;\201\302<y\211\332<I@s\276\275\360\027>\265\346\370=pn\343<*\336\235\275\226\323\203\276\341<N>\227\252{>Z\372\200\275q\r\334\275\312\260G\276\211R >\364o\223=7\250\240\275\"\346\331\275\t\374\216\276\031X\203=$\324\206>\t\240\243=\304\007\211\275\230\222\364<\334\241,\275\203o\251\275\'\307\260\275\310\226\n\276\326j\247=\321\247\217=\316\014\302=J\373\223=\215\017\022\276\315\366A>\366i\313=\300\353\261=\2052\300<\311\350\"><kb>F\354+>1\264\020\276\230\375\336\274\313\216,\276\365\033\024\276\333\222\202=\244\177w>E\000T>\236\332\364;\342d)\276\033\372s\276C\n\002\276\222[S=\n\274\231\275F\300\032=k\321\">\314\247\324\274\006F\370=o?\251=\272\275\002\276HcF<\013\247\215:\004\332\t\276\271\236/\276Z\256\262\275\032\342\206>\303\373\004\276\331\356\020\276\034\227\212=\26125>S;\343=\276s\207\276w\237\316;m?\301=\310\357\264=>w1\275\353\201f\276\261\374\024\2749\326;\276\267\270\270=|\n~=E\177V\275\314\250m\276\357\311+>f*~\275\214\223P=0\266\222=\277\212\030\275,\303o=X\031\263\272\220\352\030>N\372\t\276\004-\002\275\020-\347\275RW\000=\227\256\034\276\223\243\251<1\007\236\275\352k\030>M\031\320\275~X\n>\306\351\007>\204\374{=\330\236\004>jU2\276\t\333\022\276\335;l\275\330n\204<\317\227\346\275UKM>bv\323=A75>Ge\013\275[X\222;\312\260\263\274\246\027\341\275\201\355[\275O\035<>A8\206>\371\244\275\274\324\320\303\275.@G\275\204#\371\275\266\361+>\236\337\030;\266\361\272\275eb\347\275-\230\031\276\361\205c=\217\203\027\276$[\237=\021\310=>A\323\211<<vg=\312\225d>\335\014\242\275\002\226\n\276\235\255\025\276\002\217\210=d\272\344=\2279$\276e\274\375<\357e\316=\346~\255\273=@\260=u75>\356m\004\275\322\325\364=\005 \342=\\\3046\2762\2567>\371\233\'\274\001\330\321<\331E\022\275#\3528\275\271\354F>\352BE=c\253\234=\273\365\375\275\276\326J>_|\341=c1d>\024\010i\275gy\364\275^\202\013\276\030w{<\330\302\337<\253o\225\272\363\236 >\360\230\n>\032h\232\274\016\360v\275\276_f>\236\200\261=\233H\251=\311\014T\274W\354P>{{\276\275Z\307\017=\303\336\276\275x\250G>M\251\213\276+\004\256\275\204\227\235\275\373\036\263:w\242\375<\3440\214\275D\rz> \211L\276b\244:>V\177^=I\273\316;\261j\374=\266\356);\364\010K\275Zu\335\275\317\020\202=5\342W>\233\357\200\274\200\363\304\275\317\210\373\275%B<\276\315\236\021\276\263\030k>r&e\276\310\276$\276\243Q\361=\354\005\'\276\02390\276\312\377\023\276\3121\036\276\2341N\276]\224\021>[m\223=\"\200\245=\267@u\276^\304A:\334_\271\275\345^\245\275\312\3275\276\241\260\241=\037\356Q>W\362k\275(\rj\276\314\317\002>\017i\251\275\024\nF\275\227\023\003<JY\005>s\302\356\273\013\344\034=\004\354m\275\225\251\r\275\227\320\014=%j\250<\330\223:\276\033Z\312=\235\230\003<yW\222=:\'\231;\230j\000\274b?-\276\310\320h\276yE0\275\253\341\375\275\367\273|=\002\2011\276R\331\252\274\370\004\'\275\327*\313=\260\345\324\275Ax\314\273\220\343\007\274\004\341\020\276\030\013!>h\003\022\274a!m=\215?\014>\312\212\001\276o\247\201\275\236\341\312<i\2073\276\312\362\356;\000\252\346\275\220\354\203=M\'\\>\n%\202\275En\233\274\036\331^\276\031\236\211\274\351\305\033\276e\377\273<\355\232_\275\232\362\\\276\330\007\254\275\314V\253\274)$\264\275\311\202\227\275\263`r\276\251zm>\016\367\t\276/\341\323\275\240\226\033\275\375N\300\275\374\020\313\274\225\215\371<n\320\033\275\260\350\020>\342\370\313\275\2741\363=\374\234H\276`Y\'\276\313\312w\276\335\340\022\276)z\272\2742\271i\276\374\177\374=\201\305]\275|\337\005\276eJ\031\275z\031\001\275\025*R\275\'*\315=\262\364\303\275, \035\275T\341&>f\223a>\334uH\273I\003\346\275\360A4\274\005\334\301\275\'9\021\276\335\3528>l\002:>`\344\211\276\t\275\321\275\361\343\263\275\324\374\004\276\337D/\276\312\224\217\276\316f\343=S\255\207\275 \323T\276\363\330\243<\003l\273<\240\363\233\275\037{\325\275\272\246\360<mqy\276\376\010\006\276\220\274\237=3_B\274@k\377=[4w\274\317\316\037>\216\272\t>\230Ac>\333k\235\273\205\201\230=\342;\277\275Vpy>\332\214\000\276y\3776\275\356\367r\276>w\177\276PNY\276\261\0314>\035|\032\276%\201\027>\252A{=\\\267`=YsV>\2046\027\276\266\3756\274\302.\371;H,D\276OF\000\276\227\270B\275\007\201\333=\346\026B\275X\270\235<\315qQ>w\312(;\020i\231\275!\356\332\273\261\255\017</\021$\275\237y\231\275\327N%\276\031\204\236=&\004\276=\247\000\023>\376o\244=\016\245A=\314\277O\275\372\3574>y\277\227=;\210\250\275\250\220e=\215\365h<\\9\023\276\262\320\265\275_\340\320\275\003\324\013>B7\354\275\211;\321\275I\013\201\275\035\'f=\020\371\241=\357\336\253\275\0205C\276Y\344\r>\205\022\"\275\310\204\374= \305L\276\315g\005\276%\244S=\251D\010>>Kw=\367\306\340=w4\363<\021\003->T\261\016\276X\305\272=\323\324\374\275J\001\260\275\326?>\276\321Z\266=E\353\264=(k\271=\315\214\332\275\252\225\205\276R\236\355==\307W\276\222\rc\276~\320/\276\273\225\000\275\014CZ=+\005B<\337\215\200=\343\376\200\276q\020\304<\304\344~\275se\275\275\262\227\250\275\344\\\006<\n\005\256>\026\352\034>B\362a>2\362\216\276\312d\003\276O\364p\276\223\220\021>\355\222\037>\234\362\301\275\260S\343;\266\274|\275\247\245\020\276nu\200=q\377K\276\217\357\326\275\247\002z\275\253m\t\276\273U&>\256\205\203\276\256\345\221\275\022+\234\275J\264\205<\241\341}>*\033\336=&\371j=\217\354u\276\373^\007\276\315\370\203>Oh*>\345\234\240=0\222\025\276&\300\260\276\320\243k>\325\246\371<\036.o\274\323\3749=\240t*>\216\3163>\2658\213>\027\347?\276e\311\201>_\227;\276\341>7=>\263j\274\316\322\277\274\275$A=\001K\021>\032\010U\276\002\237\330=\333(.>\202\307\027\2762\033\250\275\010\246\236>\0335\006\276 \204\026>\323\330\020\276\275Y<\276\031\201.\276\'P\201\276_\224>\276\n\336\275\2752\"\030\276-\034!=j\2673>\315\372\266;\347YI\276\3169`=\031\0142\276H\377\270=4\272\221\2760,d>\355t\246=+\3032\276\260\204\245\275\036\244/\276\310.\247=l{e>\203jt=ds\332=\t\2576>:\026&\276\257\204Y\275\224\032\177\276\352\237H>\226!\032\276\346\010-\276T\037\212\275n\3665=s\026\377\275\322O\323\275\356\000\013\276\326 \233=J\227\033>\370\351\014=\257\036\033\275\247\241u\276\377,-=T\367V\275*\256\001\276D\341\311\274\2536\001\276\342\241\335\275\312N#>\267\257I\276i\002\036>!Gn\276\314\331\352\274\353\274\004>T=(=\226j\312\275\'#\006\276\211\337\037\276\253\243/=\250\000\257\275r>\321\275Si;>\301\037\034\275\346.}>L;\311\275r\001\365=%8\213\276p\376\030>\234Q3=\232.1\276\3511$=4\322\232:\262\312\346=\014\217\005;\016\335?\275\307aD>\227Ro>E\266\022>\021;\r\276\027f\270\275\374\343\230=\002\035 =\321D\212\275\032R\212=?\204\350\275\202\271{\275\245\270^>\261g\363\275\\\274\215\275ZF]=@\014\345=\226\362%>\253\241\232\275|\n\370==\362-\276$\354\366\275\236\257\322\275\241\n\257=h\250e=6\357o\276\031v\244\275X\306#=\273{9>{T\n>iL\213\276\272V\010\275 \367\014\274\362\336x=\366\234\270=!\350,>y\033\224\275\022\207$;\014\261\357\274=]*\275\3634\202>\003\335\215\276\014K\036\276\264\255\337=\214\324(>\334e\203<\353\306\034<C\312\032\276\317\244\036\276U)\204=\315\300\252\274\00700\276\371\257\203>U\020\363<\\\274\021\276\006Qm\275\312\262\256=\025\370|\276\240\277\256\276\261!\222\276\274\221;<\'B\013\2764\036[>\365r\317=\375z\r=\353\351\"\276\275\347\204<\244\241H>\361F\021\276\2228\017=\364\301\005\276\353G\333\275\342\367\000<F8\210>\306\372\223=\250\362{\276\336\256\311;\242c\372\275\273\267\017\275\027\363\214\275zl\254\276.\260\204\274\250t\314\273J\031E>TR\031\276M\2222\276\276\324\207;Y\337\201>K\034\037\276!\323\t\275\257\260\244\276|\351\007>\342W->\003\266\n\276\203\033X\276}=\033=\206\333\245\2758\000Q>0u\207>)\263u\276\370\226\246\275f\010\026>&\253\367=|g\206=H\252X=<u\030\275\317\021S\276\215\004Y>\006[\210=Y\343\301\275\305\226\345\275w\340P\274\333/#>|\267\244=\330\213A>L\372\001>\033\342\001>\210<\331=\310J\'>\222\366\036\276\261\024\206<_\317\000=k\376B\276K\315\014\275\316\370\215\275~Wi\275\036%\273\275\355\324+>T\255\371\275\326\002\325;e1\177\276\177\354\370=\025J5>\317\021\313\275[]N\276\037\230!=QW\026=\366\351w>kJE\275\226\243\t=\020bZ\275\310\274\026\276k\036\345=B\235\031\276\211\255\230=\0216\351\274\020\341<\276\210o\236=5\316\006\276\216E\220=\3252\032>\007\371T>\034\247\007\276\025=\256\275\024\376\t>V\335\224\275\335i\310=&\004\331=\351\266(<<\223\350<R.q>\364\256\212=\243\317\242=\"\275.\276\025\355\013>/\232A\275L\212*\274I\'(\276A\334\342\275\035\323\311\275\322\016\">\341\261\017>|{g=\274\301\301<\254z\204\276\260Y\020=_A\016=\277H\002>#\277\255\275\205\'\274\275I\247\314<E\013=\276\220O\177\275?i\020=J\210,\276.o\301=\234\356\037\276\367\202\031\276\300\244\025\276\033Nn=\022\2610>\035\340\333;\255\203\250\275(Q\246\2752:_=\372\032\362\274\016m\251\275\225\206\277\275\221(\206=\333\035\246<\214o\250\272\320V\224>k(\320=\370 k\276\003\336l=\320\376\262\275\223\367\375\274o]q\276K1\034\276B\222\322\275\270\004\323\275\223;F>d_\212=)\206e\276\305aC\275=\267\323=\330*\376\275\237\246\270\275\2306`\276\22369>J\256\250\275w\366v=\026Md\275[\223\203\2761\337<>\230\320\305\273\267\213\211>\201Vw\276\210\350:><\']>\342yQ\276q \007\276\200\267,>\313X*\276\320\201\361:<\330F>\234\310\023>\361\275\245=\324\350\211\275\237k\036\276MwK>\242\365\317<3(\036>\356h\272>\3308\001=\273\313p\275\334\215\240\275\030n\327\274\227s\241\274^)O>\260H\371<\257Y\002=\230w\351<\226\234\003\276\261\2108=\260[\261\275K\370\275=|\264\207\276V}_\275\360\035\261=A\227\224\275J\376^;h\r\016>K\025\243\274\177\230\026\276\374\231\032\275\301\347v\276\323\256\207<v\227\261\275J`M>v|\274=\322\373\000>\314\344Z\275|\031\336\275@+\232\275\t>\211\275V\3732>\366\310/>^x\'\276Fn4\272\224\261\235\275r\312.\276{v\005=\247I9>\013k\023\276\262&N\276\'`\277=y\336\302=\027\304\007=\254\341\220=\253\275\213\275\204\342M>\035\263\000\276w{\201\275\031t\037>\3548h;\020I\376\275\313\307\307\275,}\356\275\302<\037>XZl>tW\254<x\377\002\272\347\tR\276\2540\024\276\212[0\2765\3245\276\372a)\276\360>\224=\000 (>\017\273\353\275iT\354<"
      }
    }
  }
}
node {
  name: "sequential/dense_1/MatMul/ReadVariableOp"
  op: "Identity"
  input: "sequential/dense_1/MatMul/ReadVariableOp/resource"
  attr {
    key: "T"
    value {
      type: DT_FLOAT
    }
  }
}
node {
  name: "sequential/dense_1/MatMul"
  op: "MatMul"
  input: "sequential/batch_normalization/batchnorm/add_1"
  input: "sequential/dense_1/MatMul/ReadVariableOp"
  attr {
    key: "T"
    value {
      type: DT_FLOAT
    }
  }
  attr {
    key: "transpose_a"
    value {
      b: false
    }
  }
  attr {
    key: "transpose_b"
    value {
      b: false
    }
  }
}
node {
  name: "sequential/dense_1/BiasAdd/ReadVariableOp/resource"
  op: "Const"
  attr {
    key: "dtype"
    value {
      type: DT_FLOAT
    }
  }
  attr {
    key: "value"
    value {
      tensor {
        dtype: DT_FLOAT
        tensor_shape {
          dim {
            size: 64
          }
        }
        tensor_content: "\356\215\223\275\035\267\213\275\366\345\277\2757.o\276\314;\024\276V\245\307\275\204\343\244\275\341\312\237\275\n\340G\275\232\264*\276Z\026\203=\225\215\265\275!$\212<b\272\256\272h\215\275\275\311\030<\276\213\002\233\275\225\300\320\274E\374\024\2744)c\275\010g.\275\277\312\232\275\372!\217\274<\264\031\275:\247\023\276\231\303_\275^\034\304\275\336i\350\274\240\275\350\275)O\313\275\341\034\230\275\337\362\232\275+\230\221\275\003\331g=s0\201\276\200\272\211\274\274B\263\274\035(\317\275\006\276V\276\315\032\255<\230\363\310\274Po\215\275\353\235\000\276N\3255:\230\210V\275\032\302\202\275x\327\177<\316\321N:\376\256\037\276e7B\276\256\037\232\275\031%\036=M[\004\276\027GS\273^/\376=\005\307\346<m]\200\275v\217\255\275V+n\274\324\003\274\275\311\234\230\273D^m\2746\\\300\275\260%\303\275"
      }
    }
  }
}
node {
  name: "sequential/dense_1/BiasAdd/ReadVariableOp"
  op: "Identity"
  input: "sequential/dense_1/BiasAdd/ReadVariableOp/resource"
  attr {
    key: "T"
    value {
      type: DT_FLOAT
    }
  }
}
node {
  name: "sequential/dense_1/BiasAdd"
  op: "BiasAdd"
  input: "sequential/dense_1/MatMul"
  input: "sequential/dense_1/BiasAdd/ReadVariableOp"
  attr {
    key: "T"
    value {
      type: DT_FLOAT
    }
  }
  attr {
    key: "data_format"
    value {
      s: "NHWC"
    }
  }
}
node {
  name: "sequential/dense_1/Relu"
  op: "Relu"
  input: "sequential/dense_1/BiasAdd"
  attr {
    key: "T"
    value {
      type: DT_FLOAT
    }
  }
}
node {
  name: "sequential/dropout_1/Identity"
  op: "Identity"
  input: "sequential/dense_1/Relu"
  attr {
    key: "T"
    value {
      type: DT_FLOAT
    }
  }
}
node {
  name: "sequential/batch_normalization_1/batchnorm/ReadVariableOp/resource"
  op: "Const"
  attr {
    key: "dtype"
    value {
      type: DT_FLOAT
    }
  }
  attr {
    key: "value"
    value {
      tensor {
        dtype: DT_FLOAT
        tensor_shape {
          dim {
            size: 64
          }
        }
        tensor_content: "\226#Z?\372\350\372>\256\324\314?>\340\254>V\341\026?\270$\301>\202\3354?P\212\247?\373\026d?\325\244\221>[\004\310?\340d\206>\027\235\263?@\025\321?\t\312~?\263\177\221>\246\261\013?W\326d?\024\333\216?\333\326q?m#\216?\016\036\304?U:\350?(a\236?\330\242\'?nJ\217?\325>\034?\250\304>?\211\206\200?\002\020\026?\254T\210?:6\236?\206\314\354>\3575d?\255\260\375>\254^o?\242\207\214?\214\233~?k\271\346>\301D\273?\033R\027?\375\266B?:9<?\270\202$?Qk\350?\352\314c?\372D\302?O\037\233?8th?\233\366??\003\257(?\263\221\244?\000J-@\016\355c?\034\303\355?oO\230?x\201\302?\302-#?\317Q{?\273/B?5\032f?Z\016[? =\374>\317P\226?"
      }
    }
  }
}
node {
  name: "sequential/batch_normalization_1/batchnorm/ReadVariableOp"
  op: "Identity"
  input: "sequential/batch_normalization_1/batchnorm/ReadVariableOp/resource"
  attr {
    key: "T"
    value {
      type: DT_FLOAT
    }
  }
}
node {
  name: "sequential/batch_normalization_1/batchnorm/add/y"
  op: "Const"
  attr {
    key: "dtype"
    value {
      type: DT_FLOAT
    }
  }
  attr {
    key: "value"
    value {
      tensor {
        dtype: DT_FLOAT
        tensor_shape {
        }
        float_val: 0.0010000000474974513
      }
    }
  }
}
node {
  name: "sequential/batch_normalization_1/batchnorm/add"
  op: "Add"
  input: "sequential/batch_normalization_1/batchnorm/ReadVariableOp"
  input: "sequential/batch_normalization_1/batchnorm/add/y"
  attr {
    key: "T"
    value {
      type: DT_FLOAT
    }
  }
}
node {
  name: "sequential/batch_normalization_1/batchnorm/Rsqrt"
  op: "Rsqrt"
  input: "sequential/batch_normalization_1/batchnorm/add"
  attr {
    key: "T"
    value {
      type: DT_FLOAT
    }
  }
}
node {
  name: "sequential/batch_normalization_1/batchnorm/mul/ReadVariableOp/resource"
  op: "Const"
  attr {
    key: "dtype"
    value {
      type: DT_FLOAT
    }
  }
  attr {
    key: "value"
    value {
      tensor {
        dtype: DT_FLOAT
        tensor_shape {
          dim {
            size: 64
          }
        }
        tensor_content: "\303pz?\220&\201?\033s\202?\323\033x?\257\247q?\024nR?\332\035\212?1\223\202?\241\234r?0\222\206?,\332~?\271u}?\306\235\205?\265\340\201?\325?\211?\275\365\200?@\037\211??\267w?\242*\200?\255\210w?\275\342\201?\223F\207?\0031\207?\266\220\211?\215\211\210?1\307o?\251Un?\027[\210?\276u\204?]\374l?\035\027z?W\260l?\212\304i?\237\261c?\014r\212?1\375\200?\002\332k?\337\022\205?r\255u?\245\224w?wO\214?X\202w?>zz?vbw?\257\322\204?WN\210?\206b\207?`8\214?/\314~?\335qb?E\027\204?x+\206?,\005\221?\304+n? \220\206?F\275w?\236\177\207?\361\350}?9F\202?\300\006\201?\374\002z?\325<~?,oy?\022Hm?"
      }
    }
  }
}
node {
  name: "sequential/batch_normalization_1/batchnorm/mul/ReadVariableOp"
  op: "Identity"
  input: "sequential/batch_normalization_1/batchnorm/mul/ReadVariableOp/resource"
  attr {
    key: "T"
    value {
      type: DT_FLOAT
    }
  }
}
node {
  name: "sequential/batch_normalization_1/batchnorm/mul"
  op: "Mul"
  input: "sequential/batch_normalization_1/batchnorm/Rsqrt"
  input: "sequential/batch_normalization_1/batchnorm/mul/ReadVariableOp"
  attr {
    key: "T"
    value {
      type: DT_FLOAT
    }
  }
}
node {
  name: "sequential/batch_normalization_1/batchnorm/mul_1"
  op: "Mul"
  input: "sequential/dropout_1/Identity"
  input: "sequential/batch_normalization_1/batchnorm/mul"
  attr {
    key: "T"
    value {
      type: DT_FLOAT
    }
  }
}
node {
  name: "sequential/batch_normalization_1/batchnorm/ReadVariableOp_2/resource"
  op: "Const"
  attr {
    key: "dtype"
    value {
      type: DT_FLOAT
    }
  }
  attr {
    key: "value"
    value {
      tensor {
        dtype: DT_FLOAT
        tensor_shape {
          dim {
            size: 64
          }
        }
        tensor_content: "I\213\312<@J\246\275j\367\006\276\224\272\257\275\033XO\274\020\007\216\273\300\275\332=-0R=\016-\360=\326\363\032\273\210\301x>\300\272\213<\3113\030\275\324X\366\274d\305\363=\324\227,\275?\272Z>\337\234\223=;!\320<0\260V=vZ\267\274\244G\233\275G\357\223=H\233\301=\224\245,\276{\330\r>\200\374\356<\271\362\036\2756\231\356\275\037\260\375\275\032>\206\274\007c\n>\322c\024\274-\262\201\275\007\214\332\275\340?\273<\016\014\347<\032\212\024=u|\366\274\356;P\275:\362\233\275\t\307\304=H\262^=\"x\372<U\361k<\025S\253\275q\351\243=\3003\036\275\0239z=\210\241:\275T?\377\272\261.\207=Uz\t\276>\007\374\272\003\301\005\275\275\316\007=\344w\321=\263\366A\275T`\013>\330(\253=\n\354\376=\235S;<\240\273\236\2737\004\210\274"
      }
    }
  }
}
node {
  name: "sequential/batch_normalization_1/batchnorm/ReadVariableOp_2"
  op: "Identity"
  input: "sequential/batch_normalization_1/batchnorm/ReadVariableOp_2/resource"
  attr {
    key: "T"
    value {
      type: DT_FLOAT
    }
  }
}
node {
  name: "sequential/batch_normalization_1/batchnorm/ReadVariableOp_1/resource"
  op: "Const"
  attr {
    key: "dtype"
    value {
      type: DT_FLOAT
    }
  }
  attr {
    key: "value"
    value {
      tensor {
        dtype: DT_FLOAT
        tensor_shape {
          dim {
            size: 64
          }
        }
        tensor_content: "\010\352\334>\350\230P>\244C\013?\332T]>\221\245\257>\271>\224>\024\n\271>T\235\t?W~\003?\363\254M>\276\226+?v*S>\037n\350>Q\225\004?\030\357\354>UFJ>\020\013\304>\311\211\340>\343r\332>y;\271>\276a\275>V\275\337>\231\330\017?Q\302\351>\004Y\235>.d\335>\236\242\307>HN\236>\215-\220>\230\325\257>\377\262\r?7Y\t?\213(\255>\242\256\355>v\263\200>\262\363\344>\317\235\010?`V\030?s4\221>\244@\026?\372\301\225>>|\352>\226\216\341>Ss\000?\353Y\034?Da\260>\332h\026?\357+\236>\302\364\344>Uj\310>\256c\265>\032\216!?,X\001?\365f\343>\255\021\032?\'/\000?.n\013?Aw\263>\321o\000?\003G\324>\265\000\340>\215\360\344>\030\247\205>\017\317\237>"
      }
    }
  }
}
node {
  name: "sequential/batch_normalization_1/batchnorm/ReadVariableOp_1"
  op: "Identity"
  input: "sequential/batch_normalization_1/batchnorm/ReadVariableOp_1/resource"
  attr {
    key: "T"
    value {
      type: DT_FLOAT
    }
  }
}
node {
  name: "sequential/batch_normalization_1/batchnorm/mul_2"
  op: "Mul"
  input: "sequential/batch_normalization_1/batchnorm/ReadVariableOp_1"
  input: "sequential/batch_normalization_1/batchnorm/mul"
  attr {
    key: "T"
    value {
      type: DT_FLOAT
    }
  }
}
node {
  name: "sequential/batch_normalization_1/batchnorm/sub"
  op: "Sub"
  input: "sequential/batch_normalization_1/batchnorm/ReadVariableOp_2"
  input: "sequential/batch_normalization_1/batchnorm/mul_2"
  attr {
    key: "T"
    value {
      type: DT_FLOAT
    }
  }
}
node {
  name: "sequential/batch_normalization_1/batchnorm/add_1"
  op: "Add"
  input: "sequential/batch_normalization_1/batchnorm/mul_1"
  input: "sequential/batch_normalization_1/batchnorm/sub"
  attr {
    key: "T"
    value {
      type: DT_FLOAT
    }
  }
}
node {
  name: "sequential/dense_2/MatMul/ReadVariableOp/resource"
  op: "Const"
  attr {
    key: "dtype"
    value {
      type: DT_FLOAT
    }
  }
  attr {
    key: "value"
    value {
      tensor {
        dtype: DT_FLOAT
        tensor_shape {
          dim {
            size: 64
          }
          dim {
            size: 64
          }
        }
        tensor_content: "s\227!\276\210\376l\276\036Sv=\\\231p\2740\367,\276\341\231,\275M\315X\275i?\030=\204\224\365=Z\2161>\2629\237=z\240@<D\264\020\276\323#\353=:\250\034\2755\300m\276j\3409\276\221_\311=\362\254\331\275\360\300\233=\244\"+\274.\273\262\275\332\234\340\275\366\315\357=\237\262\302\275\032\023\275\275k\216\257==\312D\276e\005\367\275\030V\215<U\177\'\276\244\300\241:J\337U=\316t\216\275\336\261\364\275\207I\205\276\213\034\326<\370\032:>\305\370\355\275R\211(\276\003t\326\275\253\337\240=~_<=\240%B\276\322\022\237\275\347\341\207>\304$c\275h\230R\275\311C\273<r\351\333=b\022};W\236\204\274\265wV\276[h\006=[\264\227=\367\2231>\032|{\276Q\347i\276\243\214\026>id\005\273i\313(\276\3007\324\275\024\217\233\275\247\337;>l:\026>\363\251]=<\360C>\371\353\343\274\032lb>\216\035\300\275\253\240\023\275\266M\003>\321x\243\275\320\233\007\275\020\"\">\210\022<>3j:\276)~\270=\337\333(>\214\334\252=x!,\274\177~)\274IM/\276\226:!>\037\202n\275,@?\2762\211m\275\'4K\275\343\263\320=\022c\342<\256\246*\275\303\201x\275\374\224H=\241\377L\276\207}\033\276\335\343\202\275h$Q>\317\027\t>\r\254\225=\233\010f>7z(\276\023@h=\230\236\250=2+\230\275\337/\365\275\244G\026\274\225U\">\370\331l=\362\031.\274\326\035+\275\032\315$>\350\032O>_/\021>\266\227\211=\330\022\265=\245\371\272\275`\256k=a\325\267=\262\334N\276\036\037\235=\256$|>+5\032\276%\221L\274!+\t\276\311qG>E\313\213\275\327\350b=\017\324\353<\260+\331\275\014dw\275\351\277E\276\236B\030>\022f\324\275+Y\242\275\336G\200\274\272\037\231<\275Wa\276\201\020\013=\0009\332=\3600\340=\300*\204<\211Z(>\202]\313=\206\257\312=\264\0356\276k\266\304\275\001@]\276\214\344O\276.\246\275<\311\266\234=\210\301$\276\2246\260\2743h\000>\340\233\270=\274\276\002>lcc<+\353\260=\354\367\235\274\2416\210=JI->\343,q>\253\007\221\275\317\313\034\276\374\247\272<H]<\275\220I\374=WZ1\275\021\351\200>/\321\375\275Nr\266=\207\037\370\275\351ht\275I\275$>\3319\200>\377n\376=\202\004W>\023\353\324\2744i\006>.\231\372=g\2020>\032X\034\276\014\303\212\275\363n\326\275\323/2>\2761a>\272\213\003\276\330\346m=C\244\334=A\036\353\275Q?n=\266E\237\275\310a\262=\255?\305\275\314\267\311\274\260\024\n\274/\356\256\274\243.$\276\315\260\206=4\036\333\274\006t\200>\347\002\214>\364\302\317\275\247\324\326\275@\210b>G\r\034\276\037\364\001\276\334V$\276\246^}=\250\345l>\316\022\003\276u\016\201=x-\246\274\334\r(\276\211\t:\275\304P[<\tP\251=M\251\366=k\242k=\327\224D>dh\242\275m\376\025\275\245\323\214\275\036\253\224<\267U\013>\272)_>+R\355\275\213e\206<\3730\014>#;\035\276V\200Z\275\232\346Y\276\355\021\204\275D\r\247=2[\274\272zD;\275\377;\005>\352L\370:o\214\201\274\024+\367<\340v\025>\025\242\003>\022\234i>\350<\326\275^w\'<LI\226=\037%\001\275aw\335=\236\330\r\276E\200\r\275\212\250\001\276e\356\202=\027\265\254<\241\2256\276{E<>\306\t\200>\277\216\222=\013\037\036\274K0\230\276#,\340\275\031\3405\275(\0064>R\202\023\276N\231;=S\270B=\t^-\275\026\252\204\273o\206:\276\342\353\212<\310\250\203=\225\016\"<J\003\016\276\327\364D\276\241+P>pU\005\276\023\227\314\275\252Z\353\275j\366<>\007\350\301\275\223\253\252\275\336\341x=\306p\306=\356\373\364\273\002\001j=\240\230B\274S\3372\276\002\363\217\275\374\032\365\275\312\005\210>%\313\252\275nG\264\275 C\327\275Xt\217=\023\225\033=?[\355=S\275\313=\211\345&\276J\226\353=\326\271=\276*\360\021>Q\200W=\234\226\006>\272\207\357<A\374|\274\343\314\263\274\023\337\375\274\345BC\276z\265\322=a\231\3409\353\317:\276\342\030\001\275&\004\316\275\027Z\256=\371g(\276\250\221E\275~`\203=h\327\345=\035\n\030>\334\255\301<\373\0213=\337\301\032\276W\303>\276\201\031I>\331PN>z\017\330\275\254W7=O\312\270=-\250\027>\311\367\r>\372\356=>P\304\313\275\301\262\267\274\321\320F>\254\235Q\276<\210q\275\200\0272>\275\203\325<\"\336\210\274!\n\310\275\247\213%>\272\2273\2766\255\320=\013\026\253=\322\212L\276\376\374\007=PQ\240\275\357\204\r\275H\034\205\274)\363\031<\226OW\275\253\234\302=\327\023\305=\310\212\306\270Q\211\274=\207\331y\275N28\276\007\367\037\275H\240D\276\177\314\363\2753\002o\275\347d4>\200\252$=_\035\250\275\014\014\177\275\031E\241<\331\031w=1_\026\276\330\223\032>0&\342=\205>\362\272_.>\273K\212\222\274\014\366\225\2758D\\\275\244\302\311=\325\354\365<\372\225\013>\276X\203=6s\351\275L`F\275\341\332\364\2755\247\014\276\206L4>\202\333,\274\311^\003>=\363\010\276\0213\305\272]\301\342<\362\3219\276o5\317=-\370k>\022Y\033\276\023l\303\275\212\316\223\276\303z\312=\365\2250\276\014\\\001\275\326\316\013\2761\303!\275Y\275/>\236t\n\276\237\257\025\2753\025\262<\304l\010>=\002^\274c({\276\274\3634>U>\003>0<Y\276\327\204\205>p\336*>\371\366\207\276\177\271\\<\245\242|>\344S\000>\310@W>\256\236|\275\237;Z\276\352+\273<\004s\205\275\332\021\266\274qr\026=\016+x;\221\362#>\242\224\363\275\240L:\276\263F\334\274\314\350w\275?W\316\275T=\273;\002\225\030\276\265\337r\276\275o\346\275!\362\261\275\362\214\021>\225\022j<h\316k\276\210\3043\274\232&\344\275\006\315\014\275\376+Q\274\330\373\'>9MY>\002L\242\276Z\"{=\330\327,>\005\222\322\273\334\002\030\275V{U=\216LV==\323\367<Y\353\264=\332\247\256\275c\340(\276\2658 \276\234U\304\275\017\353\336\275\010ZS\276\017\237\313\275\374b:>\377\334\034\276c%+>\265Q\315<+:*\276\334z\237=p\013\t\275\231\367N>\333\262\220\274\373kK>X\247\310=\0227+:)\260O=\273\016\000\276.w\376<`\345\037\276{6\262\275TNa=\306\335~<4\305\253=\241+#>\"\256_\275\006l`\276\263\316J;\313\326\355=\200\021\023\275\021z\265\275\325\022\314\274XD\r>\237Y\024\275\233\300p>\300\313\006\276\235\322\215;\210- \274\024\037z\275\322\007\301=\2338f\275\212XS\276\332\361\351\275\013A\274=\026\027~\276.\272t\275\275\275\225\274\373\324x\275\201\255\304=\260\341\t\276c\354\030\276\1773\202>\010\267\312=\362|\246\275\220Y\034\2769S\214\273I\3228\276\221#}\276y\220:=\365)\010>\301\016\207=\034S\006>\027\227\014\276+\330\\>=k\034>\370\332\001\276\243W\205=;f5=\342\224M>\360\2471\2767\255\374=\275\304\204>knM\275C\333\371<@\215E=!.\230\275\372\274s=N5G>M\266\377<#\230->R\342\304\275|?\233\275fA\217\276\352n\010\276\363WV\276\233\254!\276\325{o\275\377k\335\275\216\270\t\275\236\362N\276\270`G\276\323:\333=\331\340\266=`\300\377\275GPE\276\373\262\023\276\224\375\023\276|\330\035\276\311i\206>1\305Q>8\027*;:\215\231\275\236\323\211\275\351\210\376=\272l\027>\276\263$>\217=3>8g\033\276\032\262\234\275\351\256\020\276\227!\357\273\212\003\213=\027\262\006>\333\003r\275\002\206\327<\2748\221<\201\264\256\274\244\264S\274\206\235e=<n\377\275D&\014\274\325\025\236=\023KG=oc\372=D4\310=\370:&>\016#B\275\370\203Y\274a\232\023\274\305\376t\275h\0005\272\005\"{\275\300\335I\273q\"\022>\257\371\361=\256\026k>a\333\225\2743\014\220=y\245\240\272F\214\265=\346\005\t>\212\n\201\275\344)2\275\027*\242\276wi\014>\244\257>\276\002\310E=\252\347A>\3239`\276b\036Y>\254\306%=\357O\024\276\n\3225>^:\211<\017\316\t>\271\262)>\202N\302\274\2050\304=\006p\016\2764a\"\275\377\336\r\276C\027u9\r\352\016>x\023#\276D\270J\276\265z6\275\370\310=><\304r\274\342\224\326\275%\2415\276R\026\216>S\241*;\242\255\006\276\026}\306\275\t.l:\342 x>\335\nC>s\371\241=n\347\200\274\254\314\204>^\016\206\276\300)\017\276\002\325\372=]j\001\276\nHV\276$R\222=\367\330\004<\354h0>\264>7\276y\266t\276\024\224$=\366\206h\275\2311y=I\212V\276~\267f;i\257\031=\247<\370\274\250\3227\276\013\375\303\275EB\223\275\335\353L\276\245\367R>\226\343B\276\027\2726>J\265\372=\372\216\213=y\365\327=\362\217X<F^\246\275\234w7\275\323\235\017\276\032\337B\276\275\356\202\276\227B\306\275\211[\\=t\002\024\276f\246\330=M\322m\276\023\312:\276\037\203z\275\213\020.>\212\231\232\275\t\252\371=\214\302w\276\337H\002\275\266K\331=\001\353\000>\213\356j\275\350F}<\337\032@=\3623\321\275\261f)=\201\035~</H\r\276A\255\016>\350k\373\275\211~m\276\207{m\276\356B\326\274\363\223\330\275XL\317=\270\250s\276I:\231\275t\257\237=yh\225\276\334\272\317=\320\371\022>\202\322|\276\031>\314\275o@\254\275\205\274\036>0<w\275M\342\014>\301\350B\276\016D@<N\365\254\274\330\016\303<\213`\007\276w\245\n\276>A:>\351B0\276\306\021r=\300\321\006=f\364\215\275^\363,>\243\200\223\274\363\033L\2768\213g>\2629h\276\240\321\335<y\202d\276\034\212\000>\307\374M\274\304fk\276E\220\037>S\0012=\377E\021\276\024\301\023>\311\205/>mM8>:%\347=\340\257\322\2748)M\274dfx\275\347\377 >y\344|\274\203!\206=\3644\221\275\334fF>?\"\177=\240\232\325=}/\370\275=\334\263\275\236Qf>\217\244P>\240\226\353\275\244\364\332\275\312\033V\276\353(R>\026X\310<\273\017{\275\027\3442\275\301\333~\275\255\325c>\316|\303\275y+\331=\'7l\275\024+\014=\315<g\276\304.\257\275\351\025\236=R%\030=Z\022!\274\336\270\201\275\005Ui\275\304\316\214=n\245y>\372\nP\276a|\033>\206\333\211\275\350Q\313\273p\016\035>\343l\362\275\005,Q>\366\'\233\275\225?\250=M\252&\276c\3164>\373\362\325\275\376\262|\276_\\\022>\341+\320\275\177\327\276\274\2700U\276-o\343\275RR|=?<&\276\376P%\276\211\210\210=\261\220\315=p\301\244=~\216\366=\236|\250=k\300q\276\370\007*\276\210\251\017\276\n\302\322=\307%%=2g^\276u\311\365\274k\275\271=6\005\376\275#e\327\275E\215T>\022\237\223\274\343/<>\264T>\276\354C\000\276\236\342L>\001\326B=\374\016\235=0\0340>\264=\201\274p5k>\034\260v>\302z\360\275Z\352\272\275\351\2642\276\233\227e=\016\223G=s\321\242=mc\245<J!\r>\330\320\223=\341-D\275\177=\r=\265\341\005>\235\376\304=\376\374\271\275\017\n\331\275\270e\300=\370\027S\276\306\375\016\273\321@\021=[c\000\276#\310[\275\355e\312=\036Q\357\275*\022\221\275\257e8>\212f<\275K\210\332=\261\000\200\275S\231\027\272\236#\t\275!\340\256\275i\n\032\276\214\255\305\274\371\213\317\273c\325\302\275\003\':\276\036,~>\001\372\353\275\316\355\266\275\251\225T<\276\034\016>\313\370\002\275\241\177\336=G\304)\276\263cI\275\253\300\023\276mi3\276\022\227\014\276\303\032\271=8\035\203<g\000\000\276\002\r;\276\030\343\000\276p\363\357\275i|\200=K\3744>mE\013\276\3471\313;gfb\274\3419\024>\031\203\217\275\316p\302\275\300a\005>\022\202V>\r7C\274R:4=\306\234+\275\016d\341\275Q\244\177<\033\001\"\275q\266&\276\341\242\016>\204\220\276=\r\213\245\274\242\321A>\220\272\217\275}d\361\275\241\022B>^:\201;\215\303s\276{\220\241<l\372\234\275\304:\202\274\265G\021\275R\277\334\275 \336\014=\326\342\217\274&\177\366\275f\016\021\275\236w\354\275\311\356\265<\020\031\217\275\005\254F=\230\264\276\275\t\264\324=[\207|=\340\344~=g\n%\276\\\3631>3\371\244=n\020\350;\265\326\344\275\254-\216>y\307]\276\366\363{>\272\260\001\275g\376\\\276\305\022F>\265f\033\276\rES\276\232\306\263\275Dlv>k\0165=@nj>\253\221\r\276\r}\257\275\265\"Q<!l\357=\277\231\311\275:\320\307\274\341\2747\275\250\204\312=\235\252!<\343\305W\276\276\326\241\276ddX>\026\247\r\276\\\275\310\275V\331Y\276\020@x>)x\260\275\t\244\017\276\035\246q\276\201\014\025>\370\374\n\276AbF\275a\302V\276\262\233V=\251\221u\276t8\224=\331\263\333\275\261<;>\031N\363=[cC>qn\363<\220X\036>7\337\365=\000\\\332\274t{\255\275~\222\217=\272\032\023\275\202\n\231\275\225&\253;\306F\026\275\246\026\031=\3664\215\275+\361X=Y\353\213\275\030\213\231\275\260\244S>\004\353~>t\234\212\274\236\037I\276>/\\=\"\000R\276\247v$\276\314a\255<\227\365\215=*\304\375\275_\300w>\350g\006>\312j>>\322z\207<\246\177\033>\203A[>\tU5>\033t\252=Pk\342=J\300\225\275\034\300\r>}\247\013>\003\340\303\275\303\257@\2762\203B\275s\316\346<\276c\270\275\3268\035>\021\254\014\275>$P\276l\016k\275:\017\257<\222X>\276\022^\030\276\241tz>i:]>}\307\271=\242d\352=*:\351=CE\001>t\2714\274\256\225\007>\2414C>E\005\253<\213\314Y\276\225\306\003\275P\264\277<\t\242m\274\034\310\234\275.\2035=\000\026!\276TaV>H\266\205>-\336\021\276\352\327.\276F*\225\275\03142\276\016\272k\276\216}\">&\251\222>6\212\222>\351\355\207><\361\021=E\211,>\231\270/\272\214~\220\274\241\177\213\276\337\235B=*D\321\274\270\003I=\263\256{=N\323\202=\260<\232\276s\242\343=\353x\334=\025~*>\2714\002>\233\211\224<\224\017\234=\224Q\r\276OZ\217\275C\031A:\356~M>\027\271b\276:\225 \276\000\017X\274\372\314\316=c=;>\016\257\332\275.\361|\275$\037\245=ZM>\276\311>b\275\014A[=\372\273\342\275\374\231\262<\330n\005\2766\341\316\275\014\372\207<\370\301\332;.\2243>\330^\200:_\363\316\275b{\016=0\037\032\276?\276\022\276\036\301\330=p[Y\275N\005\016\276\233\351\251=\024;\037>#\220\365=4\276:\276\3468\353\275\363\236?>\302V~=3\341\300\275,dJ=\232\256:\275\361>c=\207\247\352<\267{?=\031\271\t\276)\231|=N}\341\274\005|\017\276\360I\276\275\230\0101=[r\013>\312O\331=\266\242\203\276-\362@=[C\243\274\234u#\275\207n\">\266\374\277=\037H\347\274\242D\001\276+\240U\276\001\010\014>Y\233\315\275\274A\224\275*<\036=$\374\013\275lA&>\\k\010=R%.>6\361\005\276\357TP\275\352\313\002>5\n\260\275\255\347*>-\273B=}\017\\\2763*\373=\361\260#\276\303\260\251\275j\nc\274l\275\264\275\221@T>\344U*\276\010\263\244\275\257$`\275~hB>\355W\273=\323i\002\275p\204\010\276\310\216F\274\331\365\001=77\014>\0211\254=\027\363n\276\317;\376\275`\265\275<k\376S\276\301v3>\202\353l=>=>>\233\232\376:\'E\023\275\353\377P>\300\331\007>\327\3459\276\227K\234\275\307\324\223\275\256\205t=x\250\024\275(\332c\276\225\024-\276\366vE\275\305\371%\276O\300\032>\227\267`\276\271d\026>m\n\220\275\370\037J<YY\007>\272\372\017>\252 \346\275\217\233\375\275\201(=\276g\032C>t\343\025>vv\010>\231(\335=/?-><\260\342\275\204\330 >\004Zv=\r\277}>\021n\006>\366&e\276\313\227\271=\037J\037\275\330U\227\274\361\241k>\2065\205<\026VX>\273\246^>\240R`>\346M >o:\005\276ab\001\275\340\233\024=\353\377X\275\250\300\207\275\207\210K\275aT\032>z\343M>\034\206F\276~8-;\021\027K>\020\310\367\275\307\367\017\276\224\255S\275\321\322\247;E./=\343\204[=\377d\261<\253\205\031\2753\346\223<\377&4>\207\330^\276\377\252\321=Wg\310\275\347\240\256=\353Y\245=z?%\275r\010I\276\342\020z>\"d\032\276\334\313\236\275\253\346&\276\370\246G\276Q\222\211>\310\246\002>\331\262.<9*)>\004\004\221=\370N.\275r\'\321\275O\335\232\274\375\370\203=\021\220k\275\036\362\323\274\005\226V\276\020\'\026\276\300\310\020\276\257t\222\275\237\225\215>\214\200v>\315bc\275Q\364\'>\243N\223\274\247\260[\276h\n\252=\0360\001\275\003\242\213=\332\276b\276I\020\032\276\246\306\014>\237/D\276\211_^=h\3419\275\226m\311=^\304\035>\361/c\275e\336\310\274&\311\303\275\351C\272\275\270\255\217=\213\301\274<\354i\025>\271*\313=\312\335\013\276\332d\315\275\374\323\220<\271\355\374\275\263\034v\276\014LO\275\362^f>\243R;>7\246\006\273\235\216\030\276\032\3702\275\307\344\325=Q{\307<\265\003\227\275\203\320\r>\311lZ=\002JY\276\320\263\230\275QjZ>\360(\016\275_\003<\276\331\241\004\276\240\352\032\276\2331\027\276\226&$\276\025\007\036=\367\274\031\276b\0102\2765\360\261\273\227Z\331=\322\020z=\034\017\013\2761\232\326\275\017\004?\276q\017\246\275\037\3177\276\343D5\276\252\253\240=\222\376N>J\311\311\274h\2224>F\226$>{\215;\275h\204O>\213/p=\271\203(\276\234\366\030\276 \245O>\237\0241\275\203d\n>\354\330\206\276_n\217=f\351\275=\353\376L>R\271\302=\357\241\275=\343[\265=\356\005]>R\257\223=\'w\'\276\002\0024>\317\275\n>\365\355J>\201\232\342<\215F6\275\021\2553>\333\307\261\275\301\240\260=\255\320y=\341\232\265=\211^+\276\251\0348\276+>x\276\034,\256=>\213\240;_\373\325;\303\223i\276\231\032\343=\377\215a\275\024\\\351=\000\020\263\274\325\ny\275\254\033\235\274\210\033\200\275!\001\362=Wj\006=\021\206\206\275\215\221%\276Ry\215=\300T^\275\317\233\342\275\327qi\276\362\246\034\275\353\361%\276m\325\213\275\r]5<\320\321\003\273\026\333l\276}NC>\032C\034\276\272\224==`[\224\274\020$\262=\200m\246=\034\235\343\275\357\215\246=\335\t1\276\200\313\340=7\271k\275\270\010\356\275\247\221\300=>X\217>%&\320=R\360\200<:\033\000>\204q\235=\330)S>\301Dj>\2328j\273J\320\004>\221\346\336\275\276\0227>\035\313\241<\023\014\026=hN\270;W\316[\276\217D\025<\372\0254\276\031\365\021>_\302L\276y\003\355\275\246z\312\275\364\322n\276\r\000}>\270Ad=\204Q_>\030G\277=\036\227\353=;\262\203=\301\226\021>/qR>\030w\336\275Z\372\311\274A\221\253\275\342S\025\276u\r\226\274P\317M>}\267\021\276\025\320\227\275\276\261P\275B\306\211\275\010\332\341\275\374\347h\276\255\264\244<^\364\335<4r\243=\221\256&\276\004\201\377\275V2=>\003\257\264\275G\257\235\274\266!\002=\201\350\304=\224x\244=\026\036X>S\016\023>\027\017\032\276\257\343\001\275Y\354\341\275\277#x=\345\247\302\275\376\237(\275\246\024C=\336i\370\275RZ\016\276\320\037\021\276\260p\"\276eLU>@\017\326\273\363\330<\276%\264\254\275\365)\\\2760<<>\003\200:\276\371\307\202>;K\017>\000\272\311\275\327\032\214\275\240\371`\276au\035\275>\3545>\242\367\020\276\021\016\375\275\315\032|\275\214\021\177\275\263\313\341=\252\202!\276\225\2018\275\253\326[\276]\231\014\275Q\271\376=\310U\016\276G;a<\014VO>\036\314\303<\250\317\372=\2300\210\274,\344\376\275<BF\274\014\350A>\315\332\016=\370\336\254\275}\271\264\275.\245w=\313<\002>\300\200@=\225\255Q=\255\232P=\356I&>T\253\302<P\262\232\276\304\301u\275\220\360 \274l\310\363=\266\257\321\275\364\340\221\276Y\334K\276\002\257O\276\270\032P=\240\360\313<>\220\310=\332\315\361=|B\253=\2662\006\276\000\374f\275\3601\251\275\002\177D>~\321\236=;\316\346=\220\312\026>&\226$=\377\032D>\305\342\225\276-\037\307\275\376\372\r>\263\250#\276\302\202M=;\032D\2741G\364\275P\340o>\330$\376\274\364\370\004>\177\223Z>tY\240\275{\312\320\275\221\250<\276\377\373W>K\233\261;M62\276\332h\023\276t\211\333\272O\374\220\275\227\307\234\276N\031\027>\335un\275I*t\276\250\372\005>\203\2434\275nK\206=\344\023\023\276\3513\200\274\251\276V>6\210E>\013J0=8\2177\276=\347\'>\261<\354=\235!J=\340\275\036\276\3625!\276\025*\017>\240=3\276\356\340\314\2757\250\253=O\372%<\232\342\023=O\r\321=F\327n\275\035\236\003\275{\231\205\275\222{*>\270XI\276G\337\032\275\303\221\271\275\360\212\322\275r\027\r\276I\201\017>\242\301\r\276\242\022\367=\313_^>\223]\004>\256\370o>\221_\036\276~\332e>\240.\2079O\220\372=\215\0141\276\200\215\230=E\370\204\2754\0070\274\272\377\033>\240v\035=\0243l<\374\355\243>\233\346\376\275\013\325\010\276\260\030M=\340\352\325\274\026\3612\276\276\346\312\275\263$Z>\024\260q=\026\357=\275\274\204\206>\247\212\031\276E\205+>q\3501\276\216\303g>\377P\371=r\261Z>${\003>\347q\377\275\242i5>\340\036!\276\214\014U>Xh\332\275\2065E\276\207:B>R!\307<\343\210l\275\242\3140\276l\227\300=\352\217\026\275b\235\014\276Xy*\276{\306\032>\266\351\336<\241\203\004\275\241\003\203\275\224A`>tU$=\373_\016\276LL0\274\217\206\"\276\001\334\t\276\352\002\240=\307.M=\340\203\261=\200*\000>\254\3375=\266\244\335= \242!\276V`\200<nf\214\275)\323\314=\247\255%\275\266\213\304\274\357\341\324\274\206\2502\273\210e\345\275\017i\'<\300\2453\276Atn\275Gk\222==\000>\275=\312\000<M\322.>R\352Z\275\303\236\204=Es6\276h\2240\275g\320\312=y\275\276\274\323\324\023>\324\014\304\275\010\301M\276B\345\243<\245\251\033\276bB,>\242\262\240=\300\227\200\273\030\350q\275($\000>gLw\276\316\013\353\274O\302\035\276\226\r\004\276be\224=NO\200<\267\251(=\355M\025=\255\244\362\275\310=\006>$\373\223>R6\"\276\034\244\017\276\027\272\376\275\207\204\014\276\243\260-\275\210\356\341<;\300\022\276\301~\335<\231\202V>\373\004\330=\367\304/\276\321^\265\274\260I\313\275\237\263\032\274\274\347\307:\224F\254\275\223\313S\275\250k\035\276o\267\240=\004c\263:H\354\355=\324H\257=\267\334%;W\261\014\276\331q,\276\n\234O=UFy=\237\212\220>\211\373\200=\307Jm\275\374\301\242\275\207\246\032\2759\323%\275G-\033\275%\343\306=\251\365c>\210\377.\276!P\265\275\006\355\355=\370\205.>\031A\317=\340x)\276\240{\237\274\2466h>\234\317\222={E\222;x\316\017\276\346\304\223<\334\033\"=\226\274\247=\322\374\224\275C2 >\225\324T>\355\231$=\215C\353=\230l*\275\177N\211=q1\003\276\215]\264\274\001s4>\332Q*\276\241\204G>|\225\367\274\251\024\004\275\303bm>/=\300=\333\310_>\336\005\201=\376\353\227<t\tZ\275Z\2339>\336\356\010\276\265\350e\276\362pL>W\277\r\275\250o\236=\202\371\035>\031\301_\276}\266\213\275\037\225k>\306\356\n\276\247\014->K0\013\275\261$\021>w6\014=P\024\204\272\014I\362\271\206\356\200>76\375=\342\371\204;k\250->\235\304\303<.\331\317\274b\345\352=\032nf\275G\351\021>\303\032\303=L\260\030=\264aG\275I<\366\275\203\226\224\275?\027)>\3426\304\274\037\006\353\274\006\240?>\331\242\311\275\215Z{>\354Z\237\276\016;\032>\332\267M>\374$\311\275\331\271\216\275!N\016>d\222\006\275e\327\225\276\241`+>\243\002l=\2300F\273Uu\212>\323\220\264\275h\262$>\032\223?\275\371~\330=\2221\005\275+\312/>\266\371\210> \222\343\275h\177)<P\217y>*\332)=\206\024\255\275\234t\207\275S\223E=\334\254\210\274\022\332[>BD3\276\223_\320<\362\016\002\276T\221&\276\024\036N\274\271\374,\276x*\336\275L\027\253=W\375\375\2750\017-<\030\260\300\275\217\370B>\207\205\367;\037\213o>\325\212\351\275j3->t?=>{\302/\276\200\241&>\235l\200=-\'\366\275\370#\270=\337%\022>\204vC\276U_m\275K\240\213>@\331\302\275\257O\024\276\350\265u>\207\236\216\275\n\021\033\275\24442\275\337e\212;\300M\004\276\324\001n\275<\343\030>\3520\023>0\237\206>\271\013\207\275o\217\001\273\306\356\336=\320\310>\276\212:\007<\313\236\275<-s\000\276\033\374\266\275\275\254\014\276#$!\276\371\031\365\275\014y\263\2753\262\207=ts-=\026\246\031=\245bG<\222\2636=\"\310\351=\204\341\317\275q\'\244=\nZ\241\275E\270*=\030\223\345=\374\253\010\276`\320\270\275\317\316N=H\356/\275\'\004,=(\216a\276\215\376\031\275\032L\341;#\342:\276P\0255=>P\003>?\372s=\035\243|=\370\323\035\276\377\203&=\265V\220=1OK>h\3050\276B>\342=8\372k>\217;W\2764e\316\275/\207*\276\237e\212>\364\2011=\020-0\276\353\301I>SO\213=I\362\372\275Di\202>~\363&\2751\260\033>\330\250\001\276\033n7>\303Q\307\275\320XP>a*\361\274\231\216\224=x_\345\275\251\017G>\214\347\354\275^*B\276\335\030\307=\3458\303\275{\265\000\275.\023\340\275,\235C\274\216\000\037>S8\014\275\007\324\000>`\261\322\275=\340\217\275\017\033\276=b\226\345\274y{\t=\252\312\210\274\275\334\302=\364\350\263=\206\016\201\275{\264\272\275X}u\276\306\225(<o\312\030>M\r5\274\301\210N\276\036\373+>\334\217\"\276\363ad>\332\022W\275Nb\026>m\347\360<.pF\276\037\016%>\312\030\304<\000\307\033\276J\256\353\274\357\341 \276+e\\>q\310~=+\257\327\275K\034\013\276\201\323R>\016`\246\2749\212\242=!\016\006>E,&\276\005Y\307=\225E0\276\356\255N\2767\270\341=\224\264\364=$\036|=\004\007E>=\3211<]\314E\276\362;t\276w\307*\275\r\261\013>9\356\321\274\021Y\330\275Uqz>\nDY\276\035\213\235\275\347\2479\276)\374\362\275\237\371%\276\354\242\367=|9\324\275!T\000\276P\251\007>\222=\037\276\344\203\220=]?\327\275\353\265\220\273\031\343\027=\000\253\345=\204<\342\275\2042\301=\037\344\\<\360\353\333\275G:\250=\277\010\334\275x\'\215\275\237\032\032\276U(\222\275\321\356\323\275\344A\306\275\200\372\252=\220;h\275\273\364\002\275\352\016\217=_Z\023\276\313\243\351<\2141\023>?\364(>Y\213\327=\005?\303=\272\016k=\245\263:\276C\276O=c\335\203\276\0169\340\2758\260\267=R<D\276\001A\023\276$\275\232\274%\007\314<\211\346\276\275$\203\204:\207\254\022\276]\0325>\025b\352\274\265\210\301\275\r>\253;\213[\271\275\026\340\023\276Y\244\310=\005\313\313\275\000\255$>y\271\006>ue\320\275\347\214t=\311\027b<\246\315\335\275\316\241\237<Q!;>]=\270\274\300\023\302=W\030m\275\374\315\327={Y\336\275\034\367\233=\266\250\256=\027}==\3469\034=|\177\014\276\363\331\305=\303\316\227=#\217\257=\230\365E\274\267{+\274\240?\024\276\036I\000=\325\017\017>:\332&>{\030\202\274<\231\010>c\0101=@\000}=\345\347\004>\262\315\331\275\003\222!\276\035\260\246=#\035h=\316.\205\276&y\014>\007\t\335=\202}\352=\325\306S\276\222\206>=\265\335\212\275\207(\332\275\227\034\300=\010e)=\322\240#\276\3772\r<\020\276s\274\314Ce\275F7\324;\0015\241\275\334\036\301:\'\232\212=#\320l\2743\361\004=\003dC>a\352v\275\331=$>\320y\230\271\204\324\257\275D\323\230=>/2\276o<\000>\027\370\343=7\362.<\367\202o=\206:?\276\237\372->\344`6<\200>#>&\t!\276\007p\271\275\265\343\352\275\232\221&\276\013\223\002>\316\000\217=\rG4=\303\267q\275\260\205\307=@k==_\341X>\375q\206\275\316\220\007\276y\225\343=R\203\001=\305Z\375\275\001\022\026\276iHE=\335PY\273\013E\373<\220\243\321\275\320S\r\276\253\0212>\377\032\016\275fw\343=\201\264\233\275\304\301D\276\222\210\271\275pQ\201<z\025~\275\253i\263\275(\233\225=\300\312)\275\031`\037\276\207\315M\274\226-\261\275\274\311\233\275A3\024\276w}\005\276\262L\013\276\376\2167=\367\336\206\275\340\244c>\237@x\274\313\261\252\274\2434\034>jO\\>dyI<,\344\301\275\\\372\026>\372y\330\275\032\272\202=8\330\207\275\211\232\260=\243[\276=\351\202>>\250\034Y\275D\225\035\275\334z\213=\032\327W\276m\275\373; \375\377=4\212\202=\300\033\006\276\356\304\241<\225\263X\2758\220\351=\255e\222=\320\241\232\275k\311B>2-\370\275\303\310k\276\372\315\303\2754\265\022=\260\017\237=\315\351\217\275Iq\336\275\333jN>\035\301\004\276(;\r\276\243\331A\276:\217\304\275\0271X\275\276\337\007\276\327K>>\201k8\275\025H\315=\322B\370\275\315\335\366\274}2\021\276\373\323!\2758\035`>\303Vt=\242\227\206\275\247\202\342= \325F>\327\312\316\275\270\020\000>\004\201P=4\227\211\275\255\354\306\275tQ\301\2759R\206=\002\343u=\372 \025\276\013D\244\275\034o\226>_\275\006>\250#\242\275\201\230\335\275Q\201\214>A\017\346=\340\327\035=\366u\n\276\266\247\217\275\215\034\236\275`e\364=\277M\021\276\245\262X\2750\306\253=7\345P>\325\233\310\275\272x\201>\357Q%\276))*>\304\007\213=\213\243_>d\014\350\274\331\022\314=l\364\017>\243\336|\275\234R\274=C#\314\275\204\332j\275\346\301\207>\342\002\331\275\320\310\266<\016\355\031>\264\001\217\275vE\n\276\350\360\022>T\201E=\314:\027>\200y]\276\320\273+\276\310\031\026\274{h\365\275\264\177\276<x\302{>\200\365\237<i\360\246=EvD\276dI\333=E%\200\275;Tv>\355&\236=\024\030\022=\375i]>\234\3228>C\226\001<\360\223\014\276\000\235k=yo\336\275\254\036\023>\201\200 >\033u\376<Y\343\">\372\253I\276\344\360\204>\030\260\272\274El\264=R\232\304\275\240f8\275q\276z=C\263\202=\363\004\014\275\2653?\275\0163\204;\346p\014\276\236\3161><\365\034\276\345f\236=\r\323O>\333\306\265=\315&\007\276\273\322\366=\320\033\210=\357\360\225\274wZ\002\276\345\n\t\276%\237\211\276\352\022$>64#>6\030\'>3H\205\276V \022>\260\337r\274H\204\245\276>\244M\276\036\276\000\276\021\2512= \217E<\270I\330\275\036b\366\275\'V\344\275\376\205@\276\373_8>j<!>\376\253\246>\272\367 \276\025\235\364=M\257\224\276n\315\322\275\306\005\205=p\377\354<\204c\371<\227s\'<\321\002j\275\232\002\207=\213k-=1\260x>\277\260\246\275\246kC\275\361K\203\275\366\r\370=!\255\253=\356@\222\276\272\343\302=o\237\206\276Z\257\000\276\333;>>\3657\037\276\tR\227=\"\256\276\275\376\217\222=\374\374\230=\217JI>\001\347\022=\344\037\036=\252\026s=E\377c=Z1%>\257.\251\274\007E\246=J2\020>i\017\305;\246\333\027>\n\267\276\275T\025\025\273\034\274\333=\363\247\264\275\010\265\010\276\2141\026>\317\320-<5\300\245=@\314!\276l.3>\232\364Q\276\254\212\200\276\214\014\223\275\250\312\361\275\235\025\350<\277e^\275\2054E<\031\315\205=\246\250\211\275\3478^\276\203\374\260<m\200t\274\332\014\000\275\r\274\271=1\305/>l\346?\276 